{
  "version": "1.0",
  "truncation": null,
  "padding": null,
  "added_tokens": [
    {
      "id": 49406,
      "content": "<|startoftext|>",
      "single_word": false,
      "lstrip": false,
      "rstrip": false,
      "normalized": true,
      "special": true
    },
    {
      "id": 49407,
      "content": "<|endoftext|>",
      "single_word": false,
      "lstrip": false,
      "rstrip": false,
      "normalized": false,
      "special": true
    }
  ],
  "normalizer": {
    "type": "Sequence",
    "normalizers": [
      {
        "type": "NFC"
      },
      {
        "type": "Replace",
        "pattern": {
          "Regex": "\\s+"
        },
        "content": " "
      },
      {
        "type": "Lowercase"
      }
    ]
  },
  "pre_tokenizer": {
    "type": "Sequence",
    "pretokenizers": [
      {
        "type": "Split",
        "pattern": {
          "Regex": "'s|'t|'re|'ve|'m|'ll|'d|[\\p{L}]+|[\\p{N}]|[^\\s\\p{L}\\p{N}]+"
        },
        "behavior": "Removed",
        "invert": true
      },
      {
        "type": "ByteLevel",
        "add_prefix_space": false,
        "trim_offsets": true
      }
    ]
  },
  "post_processor": {
    "type": "RobertaProcessing",
    "sep": [
      "<|endoftext|>",
      49407
    ],
    "cls": [
      "<|startoftext|>",
      49406
    ],
    "trim_offsets": false,
    "add_prefix_space": false
  },
  "decoder": {
    "type": "ByteLevel",
    "add_prefix_space": true,
    "trim_offsets": true
  },
  "model": {
    "type": "BPE",
    "dropout": null,
    "unk_token": "<|endoftext|>",
    "continuing_subword_prefix": "",
    "end_of_word_suffix": "</w>",
    "fuse_unk": false,
    "vocab": {
      "!": 0,
      "\"": 1,
      "#": 2,
      "$": 3,
      "%": 4,
      "&": 5,
      "'": 6,
      "(": 7,
      ")": 8,
      "*": 9,
      "+": 10,
      ",": 11,
      "-": 12,
      ".": 13,
      "/": 14,
      "0": 15,
      "1": 16,
      "2": 17,
      "3": 18,
      "4": 19,
      "5": 20,
      "6": 21,
      "7": 22,
      "8": 23,
      "9": 24,
      ":": 25,
      ";": 26,
      "<": 27,
      "=": 28,
      ">": 29,
      "?": 30,
      "@": 31,
      "A": 32,
      "B": 33,
      "C": 34,
      "D": 35,
      "E": 36,
      "F": 37,
      "G": 38,
      "H": 39,
      "I": 40,
      "J": 41,
      "K": 42,
      "L": 43,
      "M": 44,
      "N": 45,
      "O": 46,
      "P": 47,
      "Q": 48,
      "R": 49,
      "S": 50,
      "T": 51,
      "U": 52,
      "V": 53,
      "W": 54,
      "X": 55,
      "Y": 56,
      "Z": 57,
      "[": 58,
      "\\": 59,
      "]": 60,
      "^": 61,
      "_": 62,
      "`": 63,
      "a": 64,
      "b": 65,
      "c": 66,
      "d": 67,
      "e": 68,
      "f": 69,
      "g": 70,
      "h": 71,
      "i": 72,
      "j": 73,
      "k": 74,
      "l": 75,
      "m": 76,
      "n": 77,
      "o": 78,
      "p": 79,
      "q": 80,
      "r": 81,
      "s": 82,
      "t": 83,
      "u": 84,
      "v": 85,
      "w": 86,
      "x": 87,
      "y": 88,
      "z": 89,
      "{": 90,
      "|": 91,
      "}": 92,
      "~": 93,
      "¡": 94,
      "¢": 95,
      "£": 96,
      "¤": 97,
      "¥": 98,
      "¦": 99,
      "§": 100,
      "¨": 101,
      "©": 102,
      "ª": 103,
      "«": 104,
      "¬": 105,
      "®": 106,
      "¯": 107,
      "°": 108,
      "±": 109,
      "²": 110,
      "³": 111,
      "´": 112,
      "µ": 113,
      "¶": 114,
      "·": 115,
      "¸": 116,
      "¹": 117,
      "º": 118,
      "»": 119,
      "¼": 120,
      "½": 121,
      "¾": 122,
      "¿": 123,
      "À": 124,
      "Á": 125,
      "Â": 126,
      "Ã": 127,
      "Ä": 128,
      "Å": 129,
      "Æ": 130,
      "Ç": 131,
      "È": 132,
      "É": 133,
      "Ê": 134,
      "Ë": 135,
      "Ì": 136,
      "Í": 137,
      "Î": 138,
      "Ï": 139,
      "Ð": 140,
      "Ñ": 141,
      "Ò": 142,
      "Ó": 143,
      "Ô": 144,
      "Õ": 145,
      "Ö": 146,
      "×": 147,
      "Ø": 148,
      "Ù": 149,
      "Ú": 150,
      "Û": 151,
      "Ü": 152,
      "Ý": 153,
      "Þ": 154,
      "ß": 155,
      "à": 156,
      "á": 157,
      "â": 158,
      "ã": 159,
      "ä": 160,
      "å": 161,
      "æ": 162,
      "ç": 163,
      "è": 164,
      "é": 165,
      "ê": 166,
      "ë": 167,
      "ì": 168,
      "í": 169,
      "î": 170,
      "ï": 171,
      "ð": 172,
      "ñ": 173,
      "ò": 174,
      "ó": 175,
      "ô": 176,
      "õ": 177,
      "ö": 178,
      "÷": 179,
      "ø": 180,
      "ù": 181,
      "ú": 182,
      "û": 183,
      "ü": 184,
      "ý": 185,
      "þ": 186,
      "ÿ": 187,
      "Ā": 188,
      "ā": 189,
      "Ă": 190,
      "ă": 191,
      "Ą": 192,
      "ą": 193,
      "Ć": 194,
      "ć": 195,
      "Ĉ": 196,
      "ĉ": 197,
      "Ċ": 198,
      "ċ": 199,
      "Č": 200,
      "č": 201,
      "Ď": 202,
      "ď": 203,
      "Đ": 204,
      "đ": 205,
      "Ē": 206,
      "ē": 207,
      "Ĕ": 208,
      "ĕ": 209,
      "Ė": 210,
      "ė": 211,
      "Ę": 212,
      "ę": 213,
      "Ě": 214,
      "ě": 215,
      "Ĝ": 216,
      "ĝ": 217,
      "Ğ": 218,
      "ğ": 219,
      "Ġ": 220,
      "ġ": 221,
      "Ģ": 222,
      "ģ": 223,
      "Ĥ": 224,
      "ĥ": 225,
      "Ħ": 226,
      "ħ": 227,
      "Ĩ": 228,
      "ĩ": 229,
      "Ī": 230,
      "ī": 231,
      "Ĭ": 232,
      "ĭ": 233,
      "Į": 234,
      "į": 235,
      "İ": 236,
      "ı": 237,
      "Ĳ": 238,
      "ĳ": 239,
      "Ĵ": 240,
      "ĵ": 241,
      "Ķ": 242,
      "ķ": 243,
      "ĸ": 244,
      "Ĺ": 245,
      "ĺ": 246,
      "Ļ": 247,
      "ļ": 248,
      "Ľ": 249,
      "ľ": 250,
      "Ŀ": 251,
      "ŀ": 252,
      "Ł": 253,
      "ł": 254,
      "Ń": 255,
      "!</w>": 256,
      "\"</w>": 257,
      "#</w>": 258,
      "$</w>": 259,
      "%</w>": 260,
      "&</w>": 261,
      "'</w>": 262,
      "(</w>": 263,
      ")</w>": 264,
      "*</w>": 265,
      "+</w>": 266,
      ",</w>": 267,
      "-</w>": 268,
      ".</w>": 269,
      "/</w>": 270,
      "0</w>": 271,
      "1</w>": 272,
      "2</w>": 273,
      "3</w>": 274,
      "4</w>": 275,
      "5</w>": 276,
      "6</w>": 277,
      "7</w>": 278,
      "8</w>": 279,
      "9</w>": 280,
      ":</w>": 281,
      ";</w>": 282,
      "<</w>": 283,
      "=</w>": 284,
      "></w>": 285,
      "?</w>": 286,
      "@</w>": 287,
      "A</w>": 288,
      "B</w>": 289,
      "C</w>": 290,
      "D</w>": 291,
      "E</w>": 292,
      "F</w>": 293,
      "G</w>": 294,
      "H</w>": 295,
      "I</w>": 296,
      "J</w>": 297,
      "K</w>": 298,
      "L</w>": 299,
      "M</w>": 300,
      "N</w>": 301,
      "O</w>": 302,
      "P</w>": 303,
      "Q</w>": 304,
      "R</w>": 305,
      "S</w>": 306,
      "T</w>": 307,
      "U</w>": 308,
      "V</w>": 309,
      "W</w>": 310,
      "X</w>": 311,
      "Y</w>": 312,
      "Z</w>": 313,
      "[</w>": 314,
      "\\</w>": 315,
      "]</w>": 316,
      "^</w>": 317,
      "_</w>": 318,
      "`</w>": 319,
      "a</w>": 320,
      "b</w>": 321,
      "c</w>": 322,
      "d</w>": 323,
      "e</w>": 324,
      "f</w>": 325,
      "g</w>": 326,
      "h</w>": 327,
      "i</w>": 328,
      "j</w>": 329,
      "k</w>": 330,
      "l</w>": 331,
      "m</w>": 332,
      "n</w>": 333,
      "o</w>": 334,
      "p</w>": 335,
      "q</w>": 336,
      "r</w>": 337,
      "s</w>": 338,
      "t</w>": 339,
      "u</w>": 340,
      "v</w>": 341,
      "w</w>": 342,
      "x</w>": 343,
      "y</w>": 344,
      "z</w>": 345,
      "{</w>": 346,
      "|</w>": 347,
      "}</w>": 348,
      "~</w>": 349,
      "¡</w>": 350,
      "¢</w>": 351,
      "£</w>": 352,
      "¤</w>": 353,
      "¥</w>": 354,
      "¦</w>": 355,
      "§</w>": 356,
      "¨</w>": 357,
      "©</w>": 358,
      "ª</w>": 359,
      "«</w>": 360,
      "¬</w>": 361,
      "®</w>": 362,
      "¯</w>": 363,
      "°</w>": 364,
      "±</w>": 365,
      "²</w>": 366,
      "³</w>": 367,
      "´</w>": 368,
      "µ</w>": 369,
      "¶</w>": 370,
      "·</w>": 371,
      "¸</w>": 372,
      "¹</w>": 373,
      "º</w>": 374,
      "»</w>": 375,
      "¼</w>": 376,
      "½</w>": 377,
      "¾</w>": 378,
      "¿</w>": 379,
      "À</w>": 380,
      "Á</w>": 381,
      "Â</w>": 382,
      "Ã</w>": 383,
      "Ä</w>": 384,
      "Å</w>": 385,
      "Æ</w>": 386,
      "Ç</w>": 387,
      "È</w>": 388,
      "É</w>": 389,
      "Ê</w>": 390,
      "Ë</w>": 391,
      "Ì</w>": 392,
      "Í</w>": 393,
      "Î</w>": 394,
      "Ï</w>": 395,
      "Ð</w>": 396,
      "Ñ</w>": 397,
      "Ò</w>": 398,
      "Ó</w>": 399,
      "Ô</w>": 400,
      "Õ</w>": 401,
      "Ö</w>": 402,
      "×</w>": 403,
      "Ø</w>": 404,
      "Ù</w>": 405,
      "Ú</w>": 406,
      "Û</w>": 407,
      "Ü</w>": 408,
      "Ý</w>": 409,
      "Þ</w>": 410,
      "ß</w>": 411,
      "à</w>": 412,
      "á</w>": 413,
      "â</w>": 414,
      "ã</w>": 415,
      "ä</w>": 416,
      "å</w>": 417,
      "æ</w>": 418,
      "ç</w>": 419,
      "è</w>": 420,
      "é</w>": 421,
      "ê</w>": 422,
      "ë</w>": 423,
      "ì</w>": 424,
      "í</w>": 425,
      "î</w>": 426,
      "ï</w>": 427,
      "ð</w>": 428,
      "ñ</w>": 429,
      "ò</w>": 430,
      "ó</w>": 431,
      "ô</w>": 432,
      "õ</w>": 433,
      "ö</w>": 434,
      "÷</w>": 435,
      "ø</w>": 436,
      "ù</w>": 437,
      "ú</w>": 438,
      "û</w>": 439,
      "ü</w>": 440,
      "ý</w>": 441,
      "þ</w>": 442,
      "ÿ</w>": 443,
      "Ā</w>": 444,
      "ā</w>": 445,
      "Ă</w>": 446,
      "ă</w>": 447,
      "Ą</w>": 448,
      "ą</w>": 449,
      "Ć</w>": 450,
      "ć</w>": 451,
      "Ĉ</w>": 452,
      "ĉ</w>": 453,
      "Ċ</w>": 454,
      "ċ</w>": 455,
      "Č</w>": 456,
      "č</w>": 457,
      "Ď</w>": 458,
      "ď</w>": 459,
      "Đ</w>": 460,
      "đ</w>": 461,
      "Ē</w>": 462,
      "ē</w>": 463,
      "Ĕ</w>": 464,
      "ĕ</w>": 465,
      "Ė</w>": 466,
      "ė</w>": 467,
      "Ę</w>": 468,
      "ę</w>": 469,
      "Ě</w>": 470,
      "ě</w>": 471,
      "Ĝ</w>": 472,
      "ĝ</w>": 473,
      "Ğ</w>": 474,
      "ğ</w>": 475,
      "Ġ</w>": 476,
      "ġ</w>": 477,
      "Ģ</w>": 478,
      "ģ</w>": 479,
      "Ĥ</w>": 480,
      "ĥ</w>": 481,
      "Ħ</w>": 482,
      "ħ</w>": 483,
      "Ĩ</w>": 484,
      "ĩ</w>": 485,
      "Ī</w>": 486,
      "ī</w>": 487,
      "Ĭ</w>": 488,
      "ĭ</w>": 489,
      "Į</w>": 490,
      "į</w>": 491,
      "İ</w>": 492,
      "ı</w>": 493,
      "Ĳ</w>": 494,
      "ĳ</w>": 495,
      "Ĵ</w>": 496,
      "ĵ</w>": 497,
      "Ķ</w>": 498,
      "ķ</w>": 499,
      "ĸ</w>": 500,
      "Ĺ</w>": 501,
      "ĺ</w>": 502,
      "Ļ</w>": 503,
      "ļ</w>": 504,
      "Ľ</w>": 505,
      "ľ</w>": 506,
      "Ŀ</w>": 507,
      "ŀ</w>": 508,
      "Ł</w>": 509,
      "ł</w>": 510,
      "Ń</w>": 511,
      "in": 512,
      "th": 513,
      "an": 514,
      "re": 515,
      "ar": 516,
      "er": 517,
      "the</w>": 518,
      "ing</w>": 519,
      "ou": 520,
      "on": 521,
      "st": 522,
      "or": 523,
      "en": 524,
      "on</w>": 525,
      "al": 526,
      "at": 527,
      "er</w>": 528,
      "it": 529,
      "in</w>": 530,
      "to</w>": 531,
      "ro": 532,
      "is</w>": 533,
      "le": 534,
      "ic": 535,
      "at</w>": 536,
      "and</w>": 537,
      "ed</w>": 538,
      "of</w>": 539,
      "ch": 540,
      "or</w>": 541,
      "es</w>": 542,
      "il": 543,
      "el": 544,
      "st</w>": 545,
      "ac": 546,
      "om": 547,
      "am": 548,
      "lo": 549,
      "an</w>": 550,
      "ay</w>": 551,
      "sh": 552,
      "ri": 553,
      "li": 554,
      "ti": 555,
      "for</w>": 556,
      "ne": 557,
      "ðŁ": 558,
      "ra": 559,
      "ha": 560,
      "de": 561,
      "ol": 562,
      "ve</w>": 563,
      "si": 564,
      "ur": 565,
      "al</w>": 566,
      "se": 567,
      "'s</w>": 568,
      "un": 569,
      "di": 570,
      "be": 571,
      "la": 572,
      "wh": 573,
      "oo": 574,
      "day</w>": 575,
      "en</w>": 576,
      "ma": 577,
      "no": 578,
      "le</w>": 579,
      "to": 580,
      "our</w>": 581,
      "ir": 582,
      "gh": 583,
      "wit": 584,
      "it</w>": 585,
      "yo": 586,
      "as": 587,
      "sp": 588,
      "this</w>": 589,
      "ts</w>": 590,
      "ati": 591,
      "you</w>": 592,
      "with</w>": 593,
      "ad": 594,
      "is": 595,
      "ab": 596,
      "ly</w>": 597,
      "we": 598,
      "the": 599,
      "te": 600,
      "as</w>": 601,
      "ag": 602,
      "vi": 603,
      "pp": 604,
      "su": 605,
      "ho": 606,
      "my</w>": 607,
      "..": 608,
      "bu": 609,
      "com": 610,
      "se</w>": 611,
      "ers</w>": 612,
      "me": 613,
      "me</w>": 614,
      "all</w>": 615,
      "con": 616,
      "mo": 617,
      "ke</w>": 618,
      "ge": 619,
      "out</w>": 620,
      "ent</w>": 621,
      "co": 622,
      "fe": 623,
      "ver": 624,
      "ar</w>": 625,
      "fro": 626,
      "au": 627,
      "po": 628,
      "ce</w>": 629,
      "ght</w>": 630,
      "are</w>": 631,
      "ss</w>": 632,
      "from</w>": 633,
      "ch</w>": 634,
      "tr": 635,
      "oun": 636,
      "one</w>": 637,
      "by</w>": 638,
      "do": 639,
      "th</w>": 640,
      "wor": 641,
      "ere</w>": 642,
      "ke": 643,
      "pro": 644,
      "for": 645,
      "ds</w>": 646,
      "bo": 647,
      "ta": 648,
      "we</w>": 649,
      "go": 650,
      "he": 651,
      "ter</w>": 652,
      "ing": 653,
      "de</w>": 654,
      "be</w>": 655,
      "ation</w>": 656,
      "mor": 657,
      "ay": 658,
      "ex": 659,
      "ill</w>": 660,
      "pe": 661,
      "ks</w>": 662,
      "sc": 663,
      "lu": 664,
      "fu": 665,
      "qu": 666,
      "ver</w>": 667,
      "ðŁĺ": 668,
      "ju": 669,
      "mu": 670,
      "ate</w>": 671,
      "and": 672,
      "ve": 673,
      "king</w>": 674,
      "mar": 675,
      "op": 676,
      "hi": 677,
      "...</w>": 678,
      "pre": 679,
      "ad</w>": 680,
      "ru": 681,
      "that</w>": 682,
      "jo": 683,
      "of": 684,
      "ce": 685,
      "new</w>": 686,
      "am</w>": 687,
      "ap": 688,
      "gre": 689,
      "ss": 690,
      "du": 691,
      "now</w>": 692,
      "ye": 693,
      "ting</w>": 694,
      "your</w>": 695,
      "ity</w>": 696,
      "ni": 697,
      "ci": 698,
      "par": 699,
      "gu": 700,
      "fi": 701,
      "af": 702,
      "per": 703,
      "ter": 704,
      "up</w>": 705,
      "so</w>": 706,
      "gi": 707,
      "ons</w>": 708,
      "gr": 709,
      "ge</w>": 710,
      "br": 711,
      "pl": 712,
      "'t</w>": 713,
      "mi": 714,
      "ine</w>": 715,
      "wee": 716,
      "bi": 717,
      "us</w>": 718,
      "sho": 719,
      "have</w>": 720,
      "today</w>": 721,
      "av": 722,
      "man": 723,
      "ent": 724,
      "ack</w>": 725,
      "ure</w>": 726,
      "our": 727,
      "âĢ": 728,
      "cu": 729,
      "ld</w>": 730,
      "loo": 731,
      "im": 732,
      "ice</w>": 733,
      "som": 734,
      "fin": 735,
      "red</w>": 736,
      "ren": 737,
      "ood</w>": 738,
      "was</w>": 739,
      "tion</w>": 740,
      "pi": 741,
      "ir</w>": 742,
      "ther</w>": 743,
      "ty</w>": 744,
      "ph": 745,
      "ard</w>": 746,
      "ec": 747,
      "!!</w>": 748,
      "mon": 749,
      "more</w>": 750,
      "will</w>": 751,
      "tra": 752,
      "can</w>": 753,
      "col": 754,
      "pu": 755,
      "te</w>": 756,
      "wn</w>": 757,
      "mb": 758,
      "so": 759,
      "iti": 760,
      "just</w>": 761,
      "ning</w>": 762,
      "here</w>": 763,
      "tu": 764,
      "pa": 765,
      "pr": 766,
      "but</w>": 767,
      "what</w>": 768,
      "ally</w>": 769,
      "fir": 770,
      "min": 771,
      "ca": 772,
      "ant</w>": 773,
      "sa": 774,
      "ted</w>": 775,
      "ev": 776,
      "ment</w>": 777,
      "fa": 778,
      "get</w>": 779,
      "ame</w>": 780,
      "about</w>": 781,
      "gra": 782,
      "not</w>": 783,
      "happ": 784,
      "ays</w>": 785,
      "man</w>": 786,
      "his</w>": 787,
      "time</w>": 788,
      "like</w>": 789,
      "gh</w>": 790,
      "has</w>": 791,
      "than": 792,
      "love</w>": 793,
      "art</w>": 794,
      "ste": 795,
      "ding</w>": 796,
      "he</w>": 797,
      "cre": 798,
      "ws</w>": 799,
      "wat": 800,
      "der</w>": 801,
      "ite</w>": 802,
      "ser": 803,
      "ace</w>": 804,
      "age</w>": 805,
      "end</w>": 806,
      "str": 807,
      "aw": 808,
      "stor": 809,
      "re</w>": 810,
      "car": 811,
      "ell</w>": 812,
      "all": 813,
      "ps</w>": 814,
      "fri": 815,
      "pho": 816,
      "por": 817,
      "do</w>": 818,
      "ak": 819,
      "wi": 820,
      "fre": 821,
      "who</w>": 822,
      "shi": 823,
      "boo": 824,
      "son</w>": 825,
      "ell": 826,
      "when</w>": 827,
      "ill": 828,
      "how</w>": 829,
      "great</w>": 830,
      "win": 831,
      "el</w>": 832,
      "bl": 833,
      "ssi": 834,
      "ali": 835,
      "some</w>": 836,
      "ðŁĴ": 837,
      "ton": 838,
      "der": 839,
      "les</w>": 840,
      "pla": 841,
      "ï¸": 842,
      "ed": 843,
      "sch": 844,
      "hu": 845,
      "ong</w>": 846,
      "don</w>": 847,
      "ki": 848,
      "sh</w>": 849,
      "ann": 850,
      "cor": 851,
      "..</w>": 852,
      "ound</w>": 853,
      "az": 854,
      "ine": 855,
      "ary</w>": 856,
      "ful</w>": 857,
      "stu": 858,
      "ould</w>": 859,
      "sti": 860,
      "go</w>": 861,
      "see</w>": 862,
      "able</w>": 863,
      "ars</w>": 864,
      "ll</w>": 865,
      "mis": 866,
      "ber": 867,
      "ck</w>": 868,
      "wa": 869,
      "ents</w>": 870,
      "no</w>": 871,
      "sig": 872,
      "fe</w>": 873,
      "first</w>": 874,
      "et</w>": 875,
      "spe": 876,
      "ack": 877,
      "if</w>": 878,
      "ous</w>": 879,
      "'m</w>": 880,
      "ster</w>": 881,
      "app": 882,
      "ang": 883,
      "ance</w>": 884,
      "ans</w>": 885,
      "good</w>": 886,
      "bre": 887,
      "ever": 888,
      "they</w>": 889,
      "tic": 890,
      "come</w>": 891,
      "off": 892,
      "back</w>": 893,
      "ase</w>": 894,
      "ings</w>": 895,
      "old</w>": 896,
      "ight</w>": 897,
      "fo": 898,
      "her</w>": 899,
      "happy</w>": 900,
      "pic": 901,
      "its</w>": 902,
      "ving</w>": 903,
      "us": 904,
      "mat": 905,
      "hom": 906,
      "dy</w>": 907,
      "em": 908,
      "sk": 909,
      "ying</w>": 910,
      "their</w>": 911,
      "led</w>": 912,
      "ry</w>": 913,
      "ul": 914,
      "har": 915,
      "ck": 916,
      "ton</w>": 917,
      "onal</w>": 918,
      "hel": 919,
      "ric": 920,
      "bir": 921,
      "vie": 922,
      "way</w>": 923,
      "tri": 924,
      "da": 925,
      "ple": 926,
      "bro": 927,
      "sto": 928,
      "ool</w>": 929,
      "night</w>": 930,
      "tru": 931,
      "ba": 932,
      "read": 933,
      "res</w>": 934,
      "year</w>": 935,
      "fr": 936,
      "tor": 937,
      "als</w>": 938,
      "coun": 939,
      "cla": 940,
      "ture</w>": 941,
      "vel": 942,
      "ated</w>": 943,
      "lec": 944,
      "end": 945,
      "thing</w>": 946,
      "vo": 947,
      "ici": 948,
      "best</w>": 949,
      "can": 950,
      "work</w>": 951,
      "last</w>": 952,
      "after</w>": 953,
      "ence</w>": 954,
      "pri": 955,
      "pe</w>": 956,
      "es": 957,
      "il</w>": 958,
      "âĢ¦</w>": 959,
      "dre": 960,
      "ys</w>": 961,
      "over</w>": 962,
      "ies</w>": 963,
      "ðŁĳ": 964,
      "comm": 965,
      "tw": 966,
      "ink</w>": 967,
      "sun": 968,
      "cl": 969,
      "life</w>": 970,
      "tt": 971,
      "ach": 972,
      "land</w>": 973,
      "sy": 974,
      "tre": 975,
      "tal": 976,
      "pol": 977,
      "sm": 978,
      "duc": 979,
      "sal": 980,
      "ft</w>": 981,
      "'re</w>": 982,
      "che": 983,
      "war": 984,
      "tur": 985,
      "ations</w>": 986,
      "ach</w>": 987,
      "ms</w>": 988,
      "ile</w>": 989,
      "pm</w>": 990,
      "ough</w>": 991,
      "ate": 992,
      "star": 993,
      "week</w>": 994,
      "!!!</w>": 995,
      "clu": 996,
      "there</w>": 997,
      "ner</w>": 998,
      "tom": 999,
      "sel": 1000,
      "ï¸ı</w>": 1001,
      "world</w>": 1002,
      "ves</w>": 1003,
      "cam": 1004,
      "got</w>": 1005,
      "inter": 1006,
      "off</w>": 1007,
      "um</w>": 1008,
      "tonight</w>": 1009,
      "other</w>": 1010,
      "hou": 1011,
      "look</w>": 1012,
      "je": 1013,
      "id</w>": 1014,
      "sion</w>": 1015,
      "beau": 1016,
      "att": 1017,
      "eli": 1018,
      "ort</w>": 1019,
      "rec": 1020,
      "ff": 1021,
      "ster": 1022,
      "supp": 1023,
      "gen": 1024,
      "been</w>": 1025,
      "ily</w>": 1026,
      "team</w>": 1027,
      "mm": 1028,
      "ic</w>": 1029,
      "peop": 1030,
      "itt": 1031,
      "ats</w>": 1032,
      "only</w>": 1033,
      "mber</w>": 1034,
      "eng": 1035,
      "bri": 1036,
      "mp": 1037,
      "know</w>": 1038,
      "bur": 1039,
      "bar": 1040,
      "ins</w>": 1041,
      "low</w>": 1042,
      "she</w>": 1043,
      "row</w>": 1044,
      "âĿ": 1045,
      "tro": 1046,
      "people</w>": 1047,
      "via</w>": 1048,
      "low": 1049,
      "aga": 1050,
      "bet": 1051,
      "xt</w>": 1052,
      "fac": 1053,
      "char": 1054,
      "ear": 1055,
      "wal": 1056,
      "sen": 1057,
      "fam": 1058,
      "ble</w>": 1059,
      "nati": 1060,
      "ish</w>": 1061,
      "nor": 1062,
      "game</w>": 1063,
      "live</w>": 1064,
      "sco": 1065,
      "ley</w>": 1066,
      "don": 1067,
      "ick</w>": 1068,
      "ball</w>": 1069,
      "very</w>": 1070,
      "these</w>": 1071,
      "pan": 1072,
      "ia</w>": 1073,
      "ating</w>": 1074,
      "cr": 1075,
      "are": 1076,
      "gir": 1077,
      "make</w>": 1078,
      "stre": 1079,
      "show</w>": 1080,
      ".\"</w>": 1081,
      "fl": 1082,
      "up": 1083,
      "dr": 1084,
      "thanks</w>": 1085,
      "illi": 1086,
      "wom": 1087,
      "sts</w>": 1088,
      "ig": 1089,
      "sur": 1090,
      "every": 1091,
      "cur": 1092,
      "view</w>": 1093,
      "let</w>": 1094,
      "into</w>": 1095,
      "most</w>": 1096,
      "na": 1097,
      "indi": 1098,
      "gar": 1099,
      "had</w>": 1100,
      "sou": 1101,
      "ved</w>": 1102,
      "ant": 1103,
      "ition</w>": 1104,
      "made</w>": 1105,
      "fol": 1106,
      "uni": 1107,
      "ited</w>": 1108,
      "ðŁı": 1109,
      "ical</w>": 1110,
      "thr": 1111,
      "ready</w>": 1112,
      "chec": 1113,
      "dra": 1114,
      "kes</w>": 1115,
      "book</w>": 1116,
      "ep</w>": 1117,
      "sic</w>": 1118,
      "morning</w>": 1119,
      "news</w>": 1120,
      "cau": 1121,
      "ct</w>": 1122,
      "well</w>": 1123,
      "anc": 1124,
      "photo</w>": 1125,
      "than</w>": 1126,
      "ors</w>": 1127,
      "birth": 1128,
      "gg": 1129,
      "out": 1130,
      "next</w>": 1131,
      "some": 1132,
      "ening</w>": 1133,
      "story</w>": 1134,
      "chri": 1135,
      "down</w>": 1136,
      "home</w>": 1137,
      "ffe": 1138,
      "free</w>": 1139,
      "da</w>": 1140,
      "bor": 1141,
      "fil": 1142,
      "cial</w>": 1143,
      "thank</w>": 1144,
      "side</w>": 1145,
      "lear": 1146,
      "que": 1147,
      "line</w>": 1148,
      "ten": 1149,
      "ates</w>": 1150,
      "years</w>": 1151,
      "my": 1152,
      "photo": 1153,
      "beauti": 1154,
      "right</w>": 1155,
      "nu": 1156,
      "form": 1157,
      "ship</w>": 1158,
      "ban": 1159,
      "ther": 1160,
      "days</w>": 1161,
      "gam": 1162,
      "ason</w>": 1163,
      "gy</w>": 1164,
      "ðŁİ": 1165,
      "birthday</w>": 1166,
      "set</w>": 1167,
      "ick": 1168,
      "et": 1169,
      "still</w>": 1170,
      "coming</w>": 1171,
      "take</w>": 1172,
      "ðŁĩ": 1173,
      "bb": 1174,
      "sol": 1175,
      "son": 1176,
      "den": 1177,
      "ep": 1178,
      "music</w>": 1179,
      "them</w>": 1180,
      "den</w>": 1181,
      "why</w>": 1182,
      "foo": 1183,
      "cra": 1184,
      "amaz": 1185,
      "wn": 1186,
      "hol": 1187,
      "tting</w>": 1188,
      "wr": 1189,
      "ue</w>": 1190,
      "mag": 1191,
      "cro": 1192,
      "lan": 1193,
      "clo": 1194,
      "bra": 1195,
      "ak</w>": 1196,
      "sing</w>": 1197,
      "cal": 1198,
      "read</w>": 1199,
      "'ve</w>": 1200,
      "joh": 1201,
      "bab": 1202,
      "dri": 1203,
      "blo": 1204,
      "big</w>": 1205,
      "eric": 1206,
      "int</w>": 1207,
      "tor</w>": 1208,
      "try</w>": 1209,
      "la</w>": 1210,
      "leg": 1211,
      "house</w>": 1212,
      "mic": 1213,
      "val": 1214,
      "beautiful</w>": 1215,
      "litt": 1216,
      "check</w>": 1217,
      "new": 1218,
      "vers": 1219,
      "sw": 1220,
      "ari": 1221,
      "play": 1222,
      "her": 1223,
      "âĢĵ</w>": 1224,
      "win</w>": 1225,
      "ma</w>": 1226,
      "congr": 1227,
      "school</w>": 1228,
      "fun": 1229,
      ".@</w>": 1230,
      "heal": 1231,
      "ich</w>": 1232,
      "del": 1233,
      "where</w>": 1234,
      "lon": 1235,
      "ket</w>": 1236,
      "two</w>": 1237,
      "much</w>": 1238,
      "watch</w>": 1239,
      "ven": 1240,
      "ded</w>": 1241,
      "ast</w>": 1242,
      "ked</w>": 1243,
      "bas": 1244,
      "going</w>": 1245,
      "mp</w>": 1246,
      "ever</w>": 1247,
      "ways</w>": 1248,
      "roo": 1249,
      "desig": 1250,
      "ly": 1251,
      "sed</w>": 1252,
      "top</w>": 1253,
      "lin": 1254,
      "chan": 1255,
      "too</w>": 1256,
      "iting</w>": 1257,
      "dent</w>": 1258,
      "ghts</w>": 1259,
      "ty": 1260,
      "spo": 1261,
      "need</w>": 1262,
      "blu": 1263,
      "inst": 1264,
      "being</w>": 1265,
      "âĿ¤": 1266,
      "wel": 1267,
      "ls</w>": 1268,
      "him</w>": 1269,
      "may</w>": 1270,
      "sting</w>": 1271,
      "na</w>": 1272,
      "ely</w>": 1273,
      "little</w>": 1274,
      "ga": 1275,
      "nat": 1276,
      "tomor": 1277,
      "mc": 1278,
      "hon": 1279,
      "want</w>": 1280,
      "air": 1281,
      "pic</w>": 1282,
      "americ": 1283,
      "per</w>": 1284,
      "less</w>": 1285,
      "week": 1286,
      "vel</w>": 1287,
      "ah</w>": 1288,
      "cap": 1289,
      "cham": 1290,
      "ger": 1291,
      "tim": 1292,
      "tomorrow</w>": 1293,
      "ness</w>": 1294,
      "state</w>": 1295,
      "hal": 1296,
      "serv": 1297,
      "ze</w>": 1298,
      "os</w>": 1299,
      "pat": 1300,
      "vis": 1301,
      "exc": 1302,
      "sin": 1303,
      "ff</w>": 1304,
      "city</w>": 1305,
      "cen": 1306,
      "any": 1307,
      "bel": 1308,
      "summ": 1309,
      "tin": 1310,
      "would</w>": 1311,
      "looking</w>": 1312,
      "ko": 1313,
      "cele": 1314,
      "family</w>": 1315,
      "mer": 1316,
      "pow": 1317,
      "help</w>": 1318,
      "bus": 1319,
      "co</w>": 1320,
      "cle": 1321,
      "self</w>": 1322,
      "ens</w>": 1323,
      "ics</w>": 1324,
      "tho": 1325,
      "ani": 1326,
      "cho": 1327,
      "lead": 1328,
      "bs</w>": 1329,
      "twee": 1330,
      "think</w>": 1331,
      "fore</w>": 1332,
      "chil": 1333,
      "vide": 1334,
      "did</w>": 1335,
      "ale</w>": 1336,
      "chi": 1337,
      "vil": 1338,
      "ends</w>": 1339,
      "wing</w>": 1340,
      "pas": 1341,
      "'ll</w>": 1342,
      "vol": 1343,
      "sa</w>": 1344,
      "gs</w>": 1345,
      "many</w>": 1346,
      "jec": 1347,
      "before</w>": 1348,
      "graph": 1349,
      "ny</w>": 1350,
      "uring</w>": 1351,
      "wil": 1352,
      "dd": 1353,
      "buil": 1354,
      "fav": 1355,
      "sted</w>": 1356,
      "tran": 1357,
      "ling</w>": 1358,
      "oud</w>": 1359,
      "dge</w>": 1360,
      "fiel": 1361,
      "national</w>": 1362,
      "sta": 1363,
      "cer": 1364,
      "were</w>": 1365,
      "ina</w>": 1366,
      "season</w>": 1367,
      "cou": 1368,
      "ned</w>": 1369,
      "amazing</w>": 1370,
      "tions</w>": 1371,
      "celebr": 1372,
      "ns</w>": 1373,
      "ath": 1374,
      "head</w>": 1375,
      "sday</w>": 1376,
      "dar": 1377,
      "loc": 1378,
      "vin": 1379,
      "another</w>": 1380,
      "goo": 1381,
      "sat": 1382,
      "ny": 1383,
      "join</w>": 1384,
      "pres": 1385,
      "ses</w>": 1386,
      "sing": 1387,
      "ana</w>": 1388,
      "ining</w>": 1389,
      "....</w>": 1390,
      "cour": 1391,
      "ï¸ı": 1392,
      "act</w>": 1393,
      "cause</w>": 1394,
      "light</w>": 1395,
      "ams</w>": 1396,
      "ta</w>": 1397,
      "bal": 1398,
      "fc</w>": 1399,
      "high</w>": 1400,
      "offici": 1401,
      "tt</w>": 1402,
      "christ": 1403,
      "dic": 1404,
      "day": 1405,
      "ral</w>": 1406,
      "hor": 1407,
      ":)</w>": 1408,
      "visi": 1409,
      "nam": 1410,
      "ob": 1411,
      "mas</w>": 1412,
      "ght": 1413,
      "really</w>": 1414,
      "tun": 1415,
      "find</w>": 1416,
      "through</w>": 1417,
      "port</w>": 1418,
      "ut": 1419,
      "tive</w>": 1420,
      "sty": 1421,
      "ne</w>": 1422,
      "ore</w>": 1423,
      "ðŁĺĤ": 1424,
      "support</w>": 1425,
      "never</w>": 1426,
      "even</w>": 1427,
      "ðŁĶ": 1428,
      "ha</w>": 1429,
      "ya</w>": 1430,
      "ld": 1431,
      "uk</w>": 1432,
      "ran": 1433,
      "jam": 1434,
      "with": 1435,
      "medi": 1436,
      "des</w>": 1437,
      "ney</w>": 1438,
      "ching</w>": 1439,
      "ale": 1440,
      "hy": 1441,
      "kin": 1442,
      "!!": 1443,
      "dy": 1444,
      "place</w>": 1445,
      "also</w>": 1446,
      "ble": 1447,
      "which</w>": 1448,
      "black</w>": 1449,
      "bli": 1450,
      "say</w>": 1451,
      "park</w>": 1452,
      "play</w>": 1453,
      "ire</w>": 1454,
      "video</w>": 1455,
      "weekend</w>": 1456,
      "ail": 1457,
      "key</w>": 1458,
      "pt</w>": 1459,
      "ward</w>": 1460,
      "friday</w>": 1461,
      "din": 1462,
      "iness</w>": 1463,
      "gro": 1464,
      "ben": 1465,
      "always</w>": 1466,
      "tball</w>": 1467,
      "ago</w>": 1468,
      "mil": 1469,
      "cy": 1470,
      "produc": 1471,
      "disc": 1472,
      "under": 1473,
      "please</w>": 1474,
      "spor": 1475,
      "full</w>": 1476,
      "ey</w>": 1477,
      "ðŁĻ": 1478,
      "ise</w>": 1479,
      "ities</w>": 1480,
      "cat": 1481,
      "kno": 1482,
      "use</w>": 1483,
      "fore": 1484,
      "ker</w>": 1485,
      "art": 1486,
      "high": 1487,
      "open</w>": 1488,
      "san": 1489,
      "ef": 1490,
      "ours</w>": 1491,
      "shed</w>": 1492,
      "stri": 1493,
      "dro": 1494,
      "again</w>": 1495,
      "im</w>": 1496,
      "ðŁĵ": 1497,
      "enjo": 1498,
      "fun</w>": 1499,
      "getting</w>": 1500,
      "pen": 1501,
      "ger</w>": 1502,
      "cli": 1503,
      "any</w>": 1504,
      "every</w>": 1505,
      "eu": 1506,
      "women</w>": 1507,
      "âľ": 1508,
      "est</w>": 1509,
      "could</w>": 1510,
      "ry": 1511,
      "\"@</w>": 1512,
      "thou": 1513,
      "sha": 1514,
      "commun": 1515,
      "ber</w>": 1516,
      "dents</w>": 1517,
      "dis": 1518,
      "while</w>": 1519,
      "away</w>": 1520,
      "dio</w>": 1521,
      "ham": 1522,
      "gla": 1523,
      "date</w>": 1524,
      "ka</w>": 1525,
      "miss</w>": 1526,
      "unch</w>": 1527,
      "won": 1528,
      "inf": 1529,
      "room</w>": 1530,
      "ga</w>": 1531,
      "real</w>": 1532,
      "exper": 1533,
      "direc": 1534,
      "should</w>": 1535,
      "spr": 1536,
      "gol": 1537,
      "long</w>": 1538,
      "better</w>": 1539,
      "ori": 1540,
      "ey": 1541,
      "ience</w>": 1542,
      "ils</w>": 1543,
      "zz": 1544,
      "han": 1545,
      "found</w>": 1546,
      "vs</w>": 1547,
      "âĻ": 1548,
      "post</w>": 1549,
      "tic</w>": 1550,
      "part</w>": 1551,
      "men": 1552,
      "rence</w>": 1553,
      "cess</w>": 1554,
      "vic": 1555,
      "sil": 1556,
      "shop</w>": 1557,
      "ðŁĺĤ</w>": 1558,
      "food</w>": 1559,
      "val</w>": 1560,
      "stic</w>": 1561,
      "you": 1562,
      "says</w>": 1563,
      "elec": 1564,
      "star</w>": 1565,
      "oc": 1566,
      "land": 1567,
      "id": 1568,
      "ction</w>": 1569,
      "field</w>": 1570,
      "sof": 1571,
      "start</w>": 1572,
      "water</w>": 1573,
      "friends</w>": 1574,
      "ones</w>": 1575,
      "ðŁĮ": 1576,
      "fla": 1577,
      "far": 1578,
      "white</w>": 1579,
      "party</w>": 1580,
      "inst</w>": 1581,
      "grou": 1582,
      "tv</w>": 1583,
      "everyone</w>": 1584,
      "ment": 1585,
      "ja": 1586,
      "cha": 1587,
      "prin": 1588,
      "ants</w>": 1589,
      "during</w>": 1590,
      "lat": 1591,
      "lar": 1592,
      "west</w>": 1593,
      "then</w>": 1594,
      "ka": 1595,
      "youn": 1596,
      "insp": 1597,
      "inte": 1598,
      "ween</w>": 1599,
      "visit</w>": 1600,
      "against</w>": 1601,
      "rele": 1602,
      "head": 1603,
      "ces</w>": 1604,
      "town</w>": 1605,
      "looks</w>": 1606,
      "thre": 1607,
      "regi": 1608,
      "rent</w>": 1609,
      "projec": 1610,
      "girl</w>": 1611,
      "sear": 1612,
      "wo": 1613,
      "mom": 1614,
      "car</w>": 1615,
      "hun": 1616,
      "publi": 1617,
      "di</w>": 1618,
      "ple</w>": 1619,
      "call</w>": 1620,
      "cri": 1621,
      "um": 1622,
      "ford</w>": 1623,
      "perfe": 1624,
      "friend</w>": 1625,
      "hard</w>": 1626,
      "ssion</w>": 1627,
      "test</w>": 1628,
      "playing</w>": 1629,
      "around</w>": 1630,
      "because</w>": 1631,
      "kets</w>": 1632,
      "meet</w>": 1633,
      "satur": 1634,
      "arti": 1635,
      "work": 1636,
      "jun": 1637,
      "ven</w>": 1638,
      "run": 1639,
      "member</w>": 1640,
      "port": 1641,
      "super": 1642,
      "twit": 1643,
      "sam": 1644,
      "els</w>": 1645,
      "tly</w>": 1646,
      "adv": 1647,
      "ative</w>": 1648,
      "ath</w>": 1649,
      "sure</w>": 1650,
      "avail": 1651,
      "lar</w>": 1652,
      "squ": 1653,
      "ards</w>": 1654,
      "event</w>": 1655,
      "men</w>": 1656,
      "ll": 1657,
      "over": 1658,
      "logy</w>": 1659,
      "ital</w>": 1660,
      "times</w>": 1661,
      "mal": 1662,
      "back": 1663,
      "coo": 1664,
      "making</w>": 1665,
      "stru": 1666,
      "âģ": 1667,
      "itu": 1668,
      "shar": 1669,
      "gan</w>": 1670,
      "cas": 1671,
      "sn": 1672,
      "summer</w>": 1673,
      "picture</w>": 1674,
      "fan": 1675,
      "hin": 1676,
      "christmas</w>": 1677,
      "cy</w>": 1678,
      "proud</w>": 1679,
      "champi": 1680,
      "design</w>": 1681,
      "pping</w>": 1682,
      "hope</w>": 1683,
      "ca</w>": 1684,
      "available</w>": 1685,
      "may": 1686,
      "wed": 1687,
      "photograph": 1688,
      "special</w>": 1689,
      "sale</w>": 1690,
      "stop</w>": 1691,
      "ery</w>": 1692,
      "awe": 1693,
      "ality</w>": 1694,
      "history</w>": 1695,
      "ama</w>": 1696,
      "presi": 1697,
      "bru": 1698,
      "working</w>": 1699,
      "done</w>": 1700,
      "dr</w>": 1701,
      "ken</w>": 1702,
      "feat": 1703,
      "wood</w>": 1704,
      "atest</w>": 1705,
      "sunday</w>": 1706,
      "movi": 1707,
      "vely</w>": 1708,
      "sle": 1709,
      "face</w>": 1710,
      "spec": 1711,
      "students</w>": 1712,
      "by": 1713,
      "ham</w>": 1714,
      "spon": 1715,
      "business</w>": 1716,
      "dat": 1717,
      "ie</w>": 1718,
      "ip": 1719,
      "soci": 1720,
      "glo": 1721,
      "hand": 1722,
      "recor": 1723,
      "rs</w>": 1724,
      "mee": 1725,
      "keep</w>": 1726,
      "pur": 1727,
      "health</w>": 1728,
      "she": 1729,
      "comple": 1730,
      "god</w>": 1731,
      "davi": 1732,
      "collec": 1733,
      "list": 1734,
      "ra</w>": 1735,
      "club</w>": 1736,
      "ters</w>": 1737,
      "inclu": 1738,
      "things</w>": 1739,
      "plan": 1740,
      "âĺ": 1741,
      "john</w>": 1742,
      "shing</w>": 1743,
      "atul": 1744,
      "soon</w>": 1745,
      "blue</w>": 1746,
      "gor": 1747,
      "saturday</w>": 1748,
      "won</w>": 1749,
      "congratul": 1750,
      "see": 1751,
      "âĿ¤ï¸ı</w>": 1752,
      "those</w>": 1753,
      "ðŁĺį</w>": 1754,
      "final</w>": 1755,
      "dou": 1756,
      "ith</w>": 1757,
      "own</w>": 1758,
      "road</w>": 1759,
      "tour</w>": 1760,
      "ast": 1761,
      "india</w>": 1762,
      "til</w>": 1763,
      "nd</w>": 1764,
      "fer": 1765,
      "favor": 1766,
      "sul": 1767,
      "learn</w>": 1768,
      "fire</w>": 1769,
      "just": 1770,
      "group</w>": 1771,
      "ah": 1772,
      "rac": 1773,
      "body</w>": 1774,
      "ur</w>": 1775,
      "care</w>": 1776,
      "à¸": 1777,
      "plo": 1778,
      "oh</w>": 1779,
      "pos": 1780,
      "give</w>": 1781,
      "tech": 1782,
      "sub": 1783,
      "cent": 1784,
      "ering</w>": 1785,
      "ym": 1786,
      "ility</w>": 1787,
      "fic": 1788,
      "london</w>": 1789,
      "vir": 1790,
      "guys</w>": 1791,
      "ba</w>": 1792,
      "ðŁ¤": 1793,
      "baby</w>": 1794,
      "scre": 1795,
      "ðŁĺį": 1796,
      "trump</w>": 1797,
      "under</w>": 1798,
      "change</w>": 1799,
      "ian</w>": 1800,
      "colle": 1801,
      "sses</w>": 1802,
      "ler</w>": 1803,
      "ssed</w>": 1804,
      "nice</w>": 1805,
      "announ": 1806,
      "power</w>": 1807,
      "sar": 1808,
      "aking</w>": 1809,
      "mini": 1810,
      "sli": 1811,
      "swee": 1812,
      "kar": 1813,
      "ful": 1814,
      "cru": 1815,
      "action</w>": 1816,
      "ather</w>": 1817,
      ").</w>": 1818,
      "stand": 1819,
      "devel": 1820,
      "aa": 1821,
      "gan": 1822,
      "left</w>": 1823,
      "lol</w>": 1824,
      "rel": 1825,
      "trans": 1826,
      "ments</w>": 1827,
      "int": 1828,
      "ef</w>": 1829,
      "manag": 1830,
      "dig": 1831,
      "gener": 1832,
      "down": 1833,
      "pau": 1834,
      "tiv": 1835,
      "ku": 1836,
      "thur": 1837,
      "ken": 1838,
      "ston</w>": 1839,
      "fans</w>": 1840,
      "talk</w>": 1841,
      "tweet</w>": 1842,
      "too": 1843,
      "style</w>": 1844,
      "prote": 1845,
      "secon": 1846,
      "fron": 1847,
      "awesome</w>": 1848,
      "gl": 1849,
      "pal": 1850,
      "net": 1851,
      "sor": 1852,
      "lau": 1853,
      "gon": 1854,
      "since</w>": 1855,
      "tty</w>": 1856,
      "series</w>": 1857,
      "memor": 1858,
      "beli": 1859,
      "film</w>": 1860,
      "did": 1861,
      "dies</w>": 1862,
      "ot": 1863,
      "congratulations</w>": 1864,
      "pra": 1865,
      "eve</w>": 1866,
      "woo": 1867,
      "official</w>": 1868,
      "suc": 1869,
      "incre": 1870,
      "bon": 1871,
      "part": 1872,
      "pped</w>": 1873,
      "class</w>": 1874,
      "sive</w>": 1875,
      "boy</w>": 1876,
      "cul": 1877,
      "perfect</w>": 1878,
      "tou": 1879,
      "dam": 1880,
      "welcome</w>": 1881,
      "football</w>": 1882,
      "hi</w>": 1883,
      "pap": 1884,
      "wait</w>": 1885,
      "ada</w>": 1886,
      "congrats</w>": 1887,
      "young</w>": 1888,
      "excited</w>": 1889,
      "rece": 1890,
      "jan": 1891,
      "va</w>": 1892,
      "red": 1893,
      "stra": 1894,
      "media</w>": 1895,
      "'d</w>": 1896,
      "does</w>": 1897,
      "let": 1898,
      "mul": 1899,
      "ills</w>": 1900,
      "green</w>": 1901,
      "mel": 1902,
      "toge": 1903,
      "future</w>": 1904,
      "yester": 1905,
      "versity</w>": 1906,
      "form</w>": 1907,
      "tain</w>": 1908,
      "ide": 1909,
      "ches</w>": 1910,
      "kids</w>": 1911,
      "qui": 1912,
      "haha": 1913,
      "deta": 1914,
      "big": 1915,
      "favorite</w>": 1916,
      "girls</w>": 1917,
      "contin": 1918,
      "dom</w>": 1919,
      "search</w>": 1920,
      "ual</w>": 1921,
      "air</w>": 1922,
      "ders</w>": 1923,
      "month</w>": 1924,
      "cer</w>": 1925,
      "yesterday</w>": 1926,
      "community</w>": 1927,
      "ade</w>": 1928,
      "dog</w>": 1929,
      "ville</w>": 1930,
      "ices</w>": 1931,
      "deli": 1932,
      "syste": 1933,
      "run</w>": 1934,
      "ism</w>": 1935,
      "heart</w>": 1936,
      "cup</w>": 1937,
      "enti": 1938,
      "few</w>": 1939,
      "president</w>": 1940,
      "eds</w>": 1941,
      "until</w>": 1942,
      "festi": 1943,
      "ok": 1944,
      "flo": 1945,
      "said</w>": 1946,
      "ole</w>": 1947,
      "med": 1948,
      "travel</w>": 1949,
      "Â£</w>": 1950,
      "phone</w>": 1951,
      "together</w>": 1952,
      "fast</w>": 1953,
      "lot</w>": 1954,
      "games</w>": 1955,
      "shir": 1956,
      "between</w>": 1957,
      "yes</w>": 1958,
      "thers</w>": 1959,
      "doing</w>": 1960,
      "mac": 1961,
      "ator</w>": 1962,
      "band</w>": 1963,
      "follow": 1964,
      "project</w>": 1965,
      "develop": 1966,
      "diffe": 1967,
      "confe": 1968,
      "speci": 1969,
      "cast</w>": 1970,
      "ys": 1971,
      "board</w>": 1972,
      "rd</w>": 1973,
      "ial</w>": 1974,
      "shoo": 1975,
      "ram": 1976,
      "having</w>": 1977,
      "share</w>": 1978,
      "follow</w>": 1979,
      "one": 1980,
      "name</w>": 1981,
      "mr</w>": 1982,
      "put</w>": 1983,
      "discu": 1984,
      "ory</w>": 1985,
      "came</w>": 1986,
      "ous": 1987,
      "site</w>": 1988,
      "twitter</w>": 1989,
      "tb": 1990,
      "tit": 1991,
      "finally</w>": 1992,
      "zed</w>": 1993,
      "super</w>": 1994,
      "compan": 1995,
      "using</w>": 1996,
      "alls</w>": 1997,
      "list</w>": 1998,
      "ris</w>": 1999,
      "shot</w>": 2000,
      "gal": 2001,
      "tar": 2002,
      "del</w>": 2003,
      "john": 2004,
      "âĢĶ</w>": 2005,
      "something</w>": 2006,
      "ram</w>": 2007,
      "intere": 2008,
      "whe": 2009,
      "bit</w>": 2010,
      "ðŁį": 2011,
      "street</w>": 2012,
      "ound": 2013,
      "ai": 2014,
      "tickets</w>": 2015,
      "movie</w>": 2016,
      "real": 2017,
      "ky": 2018,
      "taking</w>": 2019,
      "opp": 2020,
      "cc</w>": 2021,
      "lam": 2022,
      "moun": 2023,
      "inve": 2024,
      "black": 2025,
      "used</w>": 2026,
      "online</w>": 2027,
      "yor": 2028,
      "local</w>": 2029,
      "gue": 2030,
      "cks</w>": 2031,
      "ow": 2032,
      "gest</w>": 2033,
      "boys</w>": 2034,
      "illion</w>": 2035,
      "cont": 2036,
      "reci": 2037,
      "ined</w>": 2038,
      "euro": 2039,
      "now": 2040,
      "seen</w>": 2041,
      "ph</w>": 2042,
      "teach": 2043,
      "def": 2044,
      "south</w>": 2045,
      "such</w>": 2046,
      "award</w>": 2047,
      "must</w>": 2048,
      "issu": 2049,
      "care": 2050,
      "feel</w>": 2051,
      "plu": 2052,
      "latest</w>": 2053,
      "sports</w>": 2054,
      "web": 2055,
      "tex": 2056,
      "ement</w>": 2057,
      "sk</w>": 2058,
      "fic</w>": 2059,
      "wan": 2060,
      "tech</w>": 2061,
      "ot</w>": 2062,
      "box</w>": 2063,
      "ner": 2064,
      "free": 2065,
      "tal</w>": 2066,
      "ash": 2067,
      "case</w>": 2068,
      "hot</w>": 2069,
      "wonder": 2070,
      "meeting</w>": 2071,
      "era</w>": 2072,
      "chall": 2073,
      "ðŁĲ": 2074,
      "job</w>": 2075,
      "ili": 2076,
      "cool</w>": 2077,
      "jour": 2078,
      "ths</w>": 2079,
      "mo</w>": 2080,
      "fel": 2081,
      "die</w>": 2082,
      "micha": 2083,
      "ele": 2084,
      "team": 2085,
      "service</w>": 2086,
      "stand</w>": 2087,
      "makes</w>": 2088,
      "ping</w>": 2089,
      "early</w>": 2090,
      "comes</w>": 2091,
      "ek</w>": 2092,
      "holi": 2093,
      "vers</w>": 2094,
      "ague</w>": 2095,
      "sau": 2096,
      "three</w>": 2097,
      "monday</w>": 2098,
      "fashi": 2099,
      "someone</w>": 2100,
      "thro": 2101,
      "sea</w>": 2102,
      "bad</w>": 2103,
      "suppor": 2104,
      "turn</w>": 2105,
      "ury</w>": 2106,
      "ming</w>": 2107,
      "photography</w>": 2108,
      "nic": 2109,
      "mark</w>": 2110,
      "pretty</w>": 2111,
      "ssing</w>": 2112,
      "watching</w>": 2113,
      "memb": 2114,
      "arri": 2115,
      "county</w>": 2116,
      "beach</w>": 2117,
      "fran": 2118,
      "center</w>": 2119,
      "police</w>": 2120,
      "bat": 2121,
      "public</w>": 2122,
      "tan": 2123,
      "press</w>": 2124,
      "saf": 2125,
      "sy</w>": 2126,
      "gets</w>": 2127,
      "roy": 2128,
      "ners</w>": 2129,
      "your": 2130,
      "buy</w>": 2131,
      "sters</w>": 2132,
      "show": 2133,
      "ased</w>": 2134,
      "childre": 2135,
      "afric": 2136,
      "ines</w>": 2137,
      "space</w>": 2138,
      "scri": 2139,
      "hall</w>": 2140,
      "pain": 2141,
      "aring</w>": 2142,
      "home": 2143,
      "mur": 2144,
      "health": 2145,
      "ched</w>": 2146,
      "sand": 2147,
      "recei": 2148,
      "guy</w>": 2149,
      "ea": 2150,
      "american</w>": 2151,
      "resi": 2152,
      "children</w>": 2153,
      "--": 2154,
      "iri": 2155,
      "ington</w>": 2156,
      "country</w>": 2157,
      "ross</w>": 2158,
      "len</w>": 2159,
      "anna</w>": 2160,
      "books</w>": 2161,
      "bc</w>": 2162,
      "ece</w>": 2163,
      "dom": 2164,
      "lovely</w>": 2165,
      "kh": 2166,
      "pet": 2167,
      "gy": 2168,
      "gri": 2169,
      "stage</w>": 2170,
      "office</w>": 2171,
      "rock</w>": 2172,
      "mon</w>": 2173,
      "bay</w>": 2174,
      "table</w>": 2175,
      "sun</w>": 2176,
      "med</w>": 2177,
      "thin": 2178,
      "lor": 2179,
      "flow": 2180,
      "(@</w>": 2181,
      "university</w>": 2182,
      "store</w>": 2183,
      "front</w>": 2184,
      "good": 2185,
      "za</w>": 2186,
      "vote</w>": 2187,
      "north</w>": 2188,
      "hey</w>": 2189,
      "anim": 2190,
      "order</w>": 2191,
      "mid": 2192,
      "without</w>": 2193,
      "ade": 2194,
      "remember</w>": 2195,
      "market</w>": 2196,
      "??</w>": 2197,
      "mus": 2198,
      "training</w>": 2199,
      "educ": 2200,
      "but": 2201,
      "cover</w>": 2202,
      "stan": 2203,
      "scen": 2204,
      "bla": 2205,
      "break": 2206,
      "lou": 2207,
      "same</w>": 2208,
      "gold</w>": 2209,
      "ain</w>": 2210,
      "os": 2211,
      "both</w>": 2212,
      "lit": 2213,
      "vern": 2214,
      "ai</w>": 2215,
      "albu": 2216,
      "pa</w>": 2217,
      "enjoy</w>": 2218,
      "beg": 2219,
      "elling</w>": 2220,
      "thursday</w>": 2221,
      "info</w>": 2222,
      "san</w>": 2223,
      "america</w>": 2224,
      "hair</w>": 2225,
      "tel</w>": 2226,
      "march</w>": 2227,
      "concer": 2228,
      "college</w>": 2229,
      "conference</w>": 2230,
      "app</w>": 2231,
      "hour</w>": 2232,
      "chang": 2233,
      "âļ": 2234,
      "sour": 2235,
      "ols</w>": 2236,
      "weather</w>": 2237,
      "war</w>": 2238,
      "phi": 2239,
      "festival</w>": 2240,
      "second</w>": 2241,
      "cute</w>": 2242,
      "prac": 2243,
      "ener": 2244,
      "stry</w>": 2245,
      "lea": 2246,
      "polit": 2247,
      "sav": 2248,
      "sen</w>": 2249,
      "ow</w>": 2250,
      "mi</w>": 2251,
      "near</w>": 2252,
      "ought</w>": 2253,
      "ze": 2254,
      "coffe": 2255,
      "willi": 2256,
      "dan": 2257,
      "sey</w>": 2258,
      "david</w>": 2259,
      "ese</w>": 2260,
      "fan</w>": 2261,
      "deci": 2262,
      "theat": 2263,
      "nov": 2264,
      "ation": 2265,
      "trac": 2266,
      "sci": 2267,
      "review</w>": 2268,
      "cel": 2269,
      "em</w>": 2270,
      "un</w>": 2271,
      "july</w>": 2272,
      "orig": 2273,
      "tion": 2274,
      "dru": 2275,
      "former</w>": 2276,
      "stay</w>": 2277,
      "after": 2278,
      "inv": 2279,
      "took</w>": 2280,
      "data</w>": 2281,
      "bal</w>": 2282,
      "tues": 2283,
      "dan</w>": 2284,
      "evening</w>": 2285,
      "ðŁĺĤðŁĺĤ": 2286,
      "dol": 2287,
      "ures</w>": 2288,
      "provi": 2289,
      "ts": 2290,
      "est": 2291,
      "sign</w>": 2292,
      "jac": 2293,
      "uk": 2294,
      "song</w>": 2295,
      "yet</w>": 2296,
      "bow": 2297,
      "indu": 2298,
      "jap": 2299,
      "hoo": 2300,
      "point</w>": 2301,
      "anyone</w>": 2302,
      "zy</w>": 2303,
      "ist</w>": 2304,
      "hur": 2305,
      "ital": 2306,
      "building</w>": 2307,
      "woman</w>": 2308,
      "chur": 2309,
      "jer": 2310,
      "perfor": 2311,
      "coach</w>": 2312,
      "league</w>": 2313,
      "cess": 2314,
      "net</w>": 2315,
      "imag": 2316,
      "nation": 2317,
      "brit": 2318,
      "que</w>": 2319,
      "awards</w>": 2320,
      "ages</w>": 2321,
      "works</w>": 2322,
      "ced</w>": 2323,
      "mance</w>": 2324,
      "late</w>": 2325,
      "ign</w>": 2326,
      "money</w>": 2327,
      "true</w>": 2328,
      "ii</w>": 2329,
      "tell</w>": 2330,
      "plac": 2331,
      "pac": 2332,
      "asy</w>": 2333,
      "world": 2334,
      "behin": 2335,
      "import": 2336,
      "reading</w>": 2337,
      "gram</w>": 2338,
      "giving</w>": 2339,
      "met</w>": 2340,
      "hit</w>": 2341,
      "forward</w>": 2342,
      "stom": 2343,
      "present": 2344,
      "june</w>": 2345,
      "social</w>": 2346,
      "noon</w>": 2347,
      "mart": 2348,
      "half</w>": 2349,
      "swe": 2350,
      "govern": 2351,
      "ker": 2352,
      "details</w>": 2353,
      "lish</w>": 2354,
      "__": 2355,
      "acy</w>": 2356,
      "sia</w>": 2357,
      "bert</w>": 2358,
      "fall</w>": 2359,
      "!!!!</w>": 2360,
      "),</w>": 2361,
      "thi": 2362,
      "diti": 2363,
      "sport</w>": 2364,
      "king": 2365,
      "fit": 2366,
      "staf": 2367,
      "cat</w>": 2368,
      "muse": 2369,
      "centr": 2370,
      "yer</w>": 2371,
      "contro": 2372,
      "bloo": 2373,
      "walk</w>": 2374,
      "actu": 2375,
      "didn</w>": 2376,
      "lim": 2377,
      "learning</w>": 2378,
      "research</w>": 2379,
      "wedne": 2380,
      "auth": 2381,
      "hours</w>": 2382,
      "ky</w>": 2383,
      "far</w>": 2384,
      "hen": 2385,
      "....": 2386,
      "itch": 2387,
      "ril</w>": 2388,
      "strong</w>": 2389,
      "sky</w>": 2390,
      "questi": 2391,
      "james</w>": 2392,
      "ron": 2393,
      "dg": 2394,
      "fur": 2395,
      "cin": 2396,
      "does": 2397,
      "appro": 2398,
      "marke": 2399,
      "tures</w>": 2400,
      "fully</w>": 2401,
      "chat</w>": 2402,
      "behind</w>": 2403,
      "tem": 2404,
      "fini": 2405,
      "mission</w>": 2406,
      "batt": 2407,
      "feel": 2408,
      "heav": 2409,
      "everything</w>": 2410,
      "bar</w>": 2411,
      "wish</w>": 2412,
      "premi": 2413,
      "ima": 2414,
      "experience</w>": 2415,
      "each</w>": 2416,
      "report</w>": 2417,
      "sweet</w>": 2418,
      "tics</w>": 2419,
      "spring</w>": 2420,
      "respon": 2421,
      "system</w>": 2422,
      "victor": 2423,
      "lin</w>": 2424,
      "saw</w>": 2425,
      "already</w>": 2426,
      "ghter</w>": 2427,
      "fle": 2428,
      "ãĥ": 2429,
      "bring</w>": 2430,
      "album</w>": 2431,
      "--</w>": 2432,
      "ells</w>": 2433,
      "stan</w>": 2434,
      "tom</w>": 2435,
      "international</w>": 2436,
      "went</w>": 2437,
      "anni": 2438,
      "match</w>": 2439,
      "pper</w>": 2440,
      "stone</w>": 2441,
      "small</w>": 2442,
      "rain</w>": 2443,
      "fashion</w>": 2444,
      "area</w>": 2445,
      "van": 2446,
      "agram</w>": 2447,
      "ko</w>": 2448,
      "thought</w>": 2449,
      "worth</w>": 2450,
      "van</w>": 2451,
      "mer</w>": 2452,
      "coffee</w>": 2453,
      "ites</w>": 2454,
      "gn": 2455,
      "artist</w>": 2456,
      "con</w>": 2457,
      "arch": 2458,
      "cir": 2459,
      "secre": 2460,
      "ground</w>": 2461,
      "iso": 2462,
      "hand</w>": 2463,
      "com</w>": 2464,
      "bridge</w>": 2465,
      "hs</w>": 2466,
      "xi": 2467,
      "link</w>": 2468,
      "pul": 2469,
      "spl": 2470,
      "race</w>": 2471,
      "fli": 2472,
      "river</w>": 2473,
      "gas</w>": 2474,
      "disco": 2475,
      "dal": 2476,
      "player</w>": 2477,
      "fit</w>": 2478,
      "photos</w>": 2479,
      "ity": 2480,
      "ok</w>": 2481,
      "jor": 2482,
      "tra</w>": 2483,
      "april</w>": 2484,
      "ads</w>": 2485,
      "adi": 2486,
      "solu": 2487,
      "beauty</w>": 2488,
      "door</w>": 2489,
      "mess": 2490,
      "update</w>": 2491,
      "alia</w>": 2492,
      "scho": 2493,
      "ened</w>": 2494,
      "moment</w>": 2495,
      "scot": 2496,
      "science</w>": 2497,
      "ior</w>": 2498,
      "ties</w>": 2499,
      "across</w>": 2500,
      "ously</w>": 2501,
      "shes</w>": 2502,
      "doesn</w>": 2503,
      "page</w>": 2504,
      "water": 2505,
      "million</w>": 2506,
      "classi": 2507,
      "lic": 2508,
      "cast": 2509,
      "formation</w>": 2510,
      "michael</w>": 2511,
      "ello</w>": 2512,
      "smo": 2513,
      "ints</w>": 2514,
      "vision</w>": 2515,
      "opening</w>": 2516,
      "ldn</w>": 2517,
      "austr": 2518,
      "tuesday</w>": 2519,
      "winner</w>": 2520,
      "possi": 2521,
      "round</w>": 2522,
      "shirt</w>": 2523,
      "dit</w>": 2524,
      "bo</w>": 2525,
      "ues</w>": 2526,
      "illed</w>": 2527,
      "along</w>": 2528,
      "trip</w>": 2529,
      "starting</w>": 2530,
      "impro": 2531,
      "kan": 2532,
      "person</w>": 2533,
      "not": 2534,
      "reco": 2535,
      "needs</w>": 2536,
      "cle</w>": 2537,
      "lie</w>": 2538,
      "rest</w>": 2539,
      "ring</w>": 2540,
      "winter</w>": 2541,
      "simp": 2542,
      "mom</w>": 2543,
      "beer</w>": 2544,
      "face": 2545,
      "tors</w>": 2546,
      "usa</w>": 2547,
      "collection</w>": 2548,
      "geor": 2549,
      "session</w>": 2550,
      "trying</w>": 2551,
      "las</w>": 2552,
      "lake</w>": 2553,
      "jen": 2554,
      "origin": 2555,
      "student</w>": 2556,
      "secur": 2557,
      "vin</w>": 2558,
      "pics</w>": 2559,
      "expe": 2560,
      "comp": 2561,
      "gonna</w>": 2562,
      "equ": 2563,
      "bad": 2564,
      "ley": 2565,
      "au</w>": 2566,
      "members</w>": 2567,
      "break</w>": 2568,
      "wall</w>": 2569,
      "gic</w>": 2570,
      "dinner</w>": 2571,
      "bul": 2572,
      "inspir": 2573,
      "ri</w>": 2574,
      "mind</w>": 2575,
      "ica</w>": 2576,
      "winning</w>": 2577,
      "talking</w>": 2578,
      "tren": 2579,
      "sis</w>": 2580,
      "ten</w>": 2581,
      "wonderful</w>": 2582,
      "snow</w>": 2583,
      "hear</w>": 2584,
      "thom": 2585,
      "nothing</w>": 2586,
      "gui": 2587,
      "stin": 2588,
      "blog</w>": 2589,
      "fest</w>": 2590,
      "bun": 2591,
      "lee</w>": 2592,
      "wards</w>": 2593,
      "chance</w>": 2594,
      "dress</w>": 2595,
      "ren</w>": 2596,
      "paul</w>": 2597,
      "pes</w>": 2598,
      "techno": 2599,
      "russi": 2600,
      "card</w>": 2601,
      "east</w>": 2602,
      "mari": 2603,
      "wine</w>": 2604,
      "ti</w>": 2605,
      "law</w>": 2606,
      "stric": 2607,
      "ki</w>": 2608,
      "ape</w>": 2609,
      "augu": 2610,
      "profe": 2611,
      "ash</w>": 2612,
      "course</w>": 2613,
      "mail</w>": 2614,
      "rently</w>": 2615,
      "dun": 2616,
      "mun": 2617,
      "love": 2618,
      "island</w>": 2619,
      "drive</w>": 2620,
      "sl": 2621,
      "ended</w>": 2622,
      "main</w>": 2623,
      "lost</w>": 2624,
      "nature</w>": 2625,
      "âĿ¤ï¸ı": 2626,
      "chic": 2627,
      "repor": 2628,
      "pin": 2629,
      "pro</w>": 2630,
      "station</w>": 2631,
      "cep": 2632,
      "takes</w>": 2633,
      "company</w>": 2634,
      "goes</w>": 2635,
      "ond</w>": 2636,
      "mach": 2637,
      "radio</w>": 2638,
      "dad</w>": 2639,
      "rock": 2640,
      "ja</w>": 2641,
      "pay": 2642,
      "champion": 2643,
      "ee": 2644,
      "inde": 2645,
      "tta</w>": 2646,
      "atic</w>": 2647,
      "tab": 2648,
      "believe</w>": 2649,
      "energy</w>": 2650,
      "zi": 2651,
      "tat": 2652,
      "word</w>": 2653,
      "once</w>": 2654,
      "resul": 2655,
      "yl": 2656,
      "andre": 2657,
      "ano</w>": 2658,
      "instagram</w>": 2659,
      "close</w>": 2660,
      "tam": 2661,
      "custom": 2662,
      "wa</w>": 2663,
      "conom": 2664,
      "shows</w>": 2665,
      "life": 2666,
      "kin</w>": 2667,
      "rob": 2668,
      "tage</w>": 2669,
      "nation</w>": 2670,
      "almost</w>": 2671,
      "listen</w>": 2672,
      "save</w>": 2673,
      "reli": 2674,
      "ace": 2675,
      "mary</w>": 2676,
      "tree</w>": 2677,
      "forget</w>": 2678,
      "jack": 2679,
      "waiting</w>": 2680,
      "director</w>": 2681,
      "hill</w>": 2682,
      "born</w>": 2683,
      "temp": 2684,
      "fl</w>": 2685,
      "ste</w>": 2686,
      "ona</w>": 2687,
      "single</w>": 2688,
      "wednesday</w>": 2689,
      "united</w>": 2690,
      "ino</w>": 2691,
      "@_</w>": 2692,
      "nel</w>": 2693,
      "celebrate</w>": 2694,
      "ending</w>": 2695,
      "deal</w>": 2696,
      "ji</w>": 2697,
      "canada</w>": 2698,
      "huge</w>": 2699,
      "track</w>": 2700,
      "âĢ¢</w>": 2701,
      "fy</w>": 2702,
      "fanta": 2703,
      "ang</w>": 2704,
      "york</w>": 2705,
      "release</w>": 2706,
      "pun": 2707,
      "episo": 2708,
      "words</w>": 2709,
      "tour": 2710,
      "pack": 2711,
      "igh": 2712,
      "classic</w>": 2713,
      "performance</w>": 2714,
      "ket": 2715,
      "afternoon</w>": 2716,
      "record</w>": 2717,
      "wins</w>": 2718,
      "proble": 2719,
      "âĿ¤</w>": 2720,
      "four</w>": 2721,
      "bed</w>": 2722,
      "bank</w>": 2723,
      "dance</w>": 2724,
      "sla": 2725,
      "called</w>": 2726,
      "might</w>": 2727,
      "ap</w>": 2728,
      "past</w>": 2729,
      "ðŁļ": 2730,
      "different</w>": 2731,
      "ite": 2732,
      "gift</w>": 2733,
      "ssive</w>": 2734,
      "church</w>": 2735,
      "cus</w>": 2736,
      "program</w>": 2737,
      "hotel</w>": 2738,
      "ice": 2739,
      "mad": 2740,
      "security</w>": 2741,
      "enge</w>": 2742,
      "dc</w>": 2743,
      "enough</w>": 2744,
      "sta</w>": 2745,
      "ety</w>": 2746,
      "dead</w>": 2747,
      "gun": 2748,
      "hear": 2749,
      "mir": 2750,
      "human</w>": 2751,
      "gress</w>": 2752,
      "ounds</w>": 2753,
      "piece</w>": 2754,
      "breaking</w>": 2755,
      "garden</w>": 2756,
      "fight</w>": 2757,
      "views</w>": 2758,
      "fish</w>": 2759,
      "started</w>": 2760,
      "running</w>": 2761,
      "green": 2762,
      "seri": 2763,
      "sm</w>": 2764,
      "ask</w>": 2765,
      "dor": 2766,
      "death</w>": 2767,
      "econom": 2768,
      "eri": 2769,
      "ird</w>": 2770,
      "ser</w>": 2771,
      "lunch</w>": 2772,
      "âģ¦": 2773,
      "box": 2774,
      "natu": 2775,
      "base": 2776,
      "ban</w>": 2777,
      "fal": 2778,
      "global</w>": 2779,
      "wild": 2780,
      "wow</w>": 2781,
      "outside</w>": 2782,
      "move</w>": 2783,
      "lead</w>": 2784,
      "anal": 2785,
      "museum</w>": 2786,
      "ong": 2787,
      "haw": 2788,
      "power": 2789,
      "thank": 2790,
      "bac": 2791,
      "charac": 2792,
      "campa": 2793,
      "digital</w>": 2794,
      "ro</w>": 2795,
      "oper": 2796,
      "dev": 2797,
      "wol": 2798,
      "pati": 2799,
      "fa</w>": 2800,
      "male</w>": 2801,
      "paper</w>": 2802,
      "illing</w>": 2803,
      "cs</w>": 2804,
      "âĥ": 2805,
      "education</w>": 2806,
      "taken</w>": 2807,
      "effe": 2808,
      "mou": 2809,
      "sad": 2810,
      "\".</w>": 2811,
      "based</w>": 2812,
      "staff</w>": 2813,
      "including</w>": 2814,
      "living</w>": 2815,
      "ac</w>": 2816,
      "china</w>": 2817,
      "mob": 2818,
      "storm</w>": 2819,
      "luck</w>": 2820,
      "phil": 2821,
      "oo</w>": 2822,
      "yn": 2823,
      "travel": 2824,
      "kel": 2825,
      "tial</w>": 2826,
      "price</w>": 2827,
      "book": 2828,
      "important</w>": 2829,
      "bio": 2830,
      "pool</w>": 2831,
      "nyc</w>": 2832,
      "fab": 2833,
      "load</w>": 2834,
      "?!</w>": 2835,
      "challenge</w>": 2836,
      "cry": 2837,
      "serve</w>": 2838,
      "wear</w>": 2839,
      "bus</w>": 2840,
      "tain": 2841,
      "number</w>": 2842,
      "ror</w>": 2843,
      "kat": 2844,
      "iz": 2845,
      "though</w>": 2846,
      "hosp": 2847,
      "mm</w>": 2848,
      "fair</w>": 2849,
      "utes</w>": 2850,
      "hot": 2851,
      "pop</w>": 2852,
      "fied</w>": 2853,
      "camp": 2854,
      "development</w>": 2855,
      "libr": 2856,
      "cali": 2857,
      "ems</w>": 2858,
      "âģ¦@</w>": 2859,
      "bol": 2860,
      "ised</w>": 2861,
      "standing</w>": 2862,
      "model</w>": 2863,
      "ita</w>": 2864,
      "gle</w>": 2865,
      "brown</w>": 2866,
      "image</w>": 2867,
      "vered</w>": 2868,
      "force</w>": 2869,
      "oil</w>": 2870,
      "partic": 2871,
      "shu": 2872,
      "daily</w>": 2873,
      "law": 2874,
      "sec": 2875,
      "class": 2876,
      "camp</w>": 2877,
      "holiday</w>": 2878,
      "clin": 2879,
      "kers</w>": 2880,
      "present</w>": 2881,
      "game": 2882,
      "incredi": 2883,
      "ership</w>": 2884,
      "interview</w>": 2885,
      "bill</w>": 2886,
      "due</w>": 2887,
      "andy</w>": 2888,
      "abo": 2889,
      "innov": 2890,
      "key": 2891,
      "acade": 2892,
      "pil": 2893,
      "moder": 2894,
      "stars</w>": 2895,
      "brand</w>": 2896,
      "fer</w>": 2897,
      "weeks</w>": 2898,
      "consi": 2899,
      "pre</w>": 2900,
      "safe": 2901,
      "writ": 2902,
      "dium</w>": 2903,
      "launch</w>": 2904,
      "marketing</w>": 2905,
      "annual</w>": 2906,
      "assi": 2907,
      "court</w>": 2908,
      "lady</w>": 2909,
      "cted</w>": 2910,
      "anda</w>": 2911,
      "inside</w>": 2912,
      "child</w>": 2913,
      "oppor": 2914,
      "smith</w>": 2915,
      "centre</w>": 2916,
      "gue</w>": 2917,
      "âģ©</w>": 2918,
      "fren": 2919,
      "sty</w>": 2920,
      "fort</w>": 2921,
      "ently</w>": 2922,
      "isn</w>": 2923,
      "keep": 2924,
      "tober</w>": 2925,
      "ony</w>": 2926,
      "boy": 2927,
      "ald</w>": 2928,
      "colla": 2929,
      "demo": 2930,
      "level</w>": 2931,
      "compet": 2932,
      "ado</w>": 2933,
      "bour": 2934,
      "fantastic</w>": 2935,
      "mate</w>": 2936,
      "su</w>": 2937,
      "south": 2938,
      "opportun": 2939,
      "versary</w>": 2940,
      "later</w>": 2941,
      "bud": 2942,
      "facebook</w>": 2943,
      "laun": 2944,
      "stern</w>": 2945,
      "pit": 2946,
      "!\"</w>": 2947,
      "maj": 2948,
      "gram": 2949,
      "tbt</w>": 2950,
      "fire": 2951,
      "happy": 2952,
      "aks</w>": 2953,
      "whole</w>": 2954,
      "actually</w>": 2955,
      "iller</w>": 2956,
      "ella</w>": 2957,
      "lots</w>": 2958,
      "alex": 2959,
      "ange": 2960,
      "lands</w>": 2961,
      "ðŁĺŃ": 2962,
      "enter": 2963,
      "rou": 2964,
      "episode</w>": 2965,
      "ped</w>": 2966,
      "inten": 2967,
      "shire</w>": 2968,
      "who": 2969,
      "plan</w>": 2970,
      "ho</w>": 2971,
      "cake</w>": 2972,
      "west": 2973,
      "magaz": 2974,
      "fresh</w>": 2975,
      "cc": 2976,
      "nar": 2977,
      "chris</w>": 2978,
      "writing</w>": 2979,
      "wer</w>": 2980,
      "nom": 2981,
      "lo</w>": 2982,
      "midd": 2983,
      "dream</w>": 2984,
      "ol</w>": 2985,
      "tional</w>": 2986,
      "deb": 2987,
      ">></w>": 2988,
      "become</w>": 2989,
      "si</w>": 2990,
      "grand</w>": 2991,
      "alling</w>": 2992,
      "histor": 2993,
      "ride</w>": 2994,
      "ired</w>": 2995,
      "safe</w>": 2996,
      "queen</w>": 2997,
      "cil</w>": 2998,
      "intro": 2999,
      "vil</w>": 3000,
      "dani": 3001,
      "...": 3002,
      "artic": 3003,
      "stat": 3004,
      "short</w>": 3005,
      "oring</w>": 3006,
      "selfi": 3007,
      "missi": 3008,
      "doc": 3009,
      "bit": 3010,
      "gall": 3011,
      "bom": 3012,
      "ire": 3013,
      "selec": 3014,
      "dition</w>": 3015,
      "ðŁĶ¥</w>": 3016,
      "friend": 3017,
      "beat</w>": 3018,
      "ghting</w>": 3019,
      "ðŁĺĬ</w>": 3020,
      "peace</w>": 3021,
      "exhi": 3022,
      "anta</w>": 3023,
      "ability</w>": 3024,
      "illu": 3025,
      "jon": 3026,
      "quality</w>": 3027,
      "tribu": 3028,
      "mes</w>": 3029,
      "players</w>": 3030,
      "fair": 3031,
      "cut</w>": 3032,
      "cab": 3033,
      "success</w>": 3034,
      "bi</w>": 3035,
      "sus</w>": 3036,
      "promo": 3037,
      "sche": 3038,
      "ange</w>": 3039,
      "ico</w>": 3040,
      "commit": 3041,
      "catch</w>": 3042,
      "illa</w>": 3043,
      "kind</w>": 3044,
      "feeling</w>": 3045,
      "quo": 3046,
      "say": 3047,
      "anniversary</w>": 3048,
      "spot</w>": 3049,
      "mother</w>": 3050,
      "ane</w>": 3051,
      "pend": 3052,
      "yourself</w>": 3053,
      "ops</w>": 3054,
      "apple</w>": 3055,
      "minutes</w>": 3056,
      "po</w>": 3057,
      "grand": 3058,
      "ries</w>": 3059,
      "haha</w>": 3060,
      "career</w>": 3061,
      "edition</w>": 3062,
      "dec": 3063,
      "rick</w>": 3064,
      "ami</w>": 3065,
      "concert</w>": 3066,
      "itive</w>": 3067,
      "geous</w>": 3068,
      "dly</w>": 3069,
      "tte</w>": 3070,
      "advent": 3071,
      "ig</w>": 3072,
      "lights</w>": 3073,
      "aker</w>": 3074,
      "sky": 3075,
      "âĥ£</w>": 3076,
      "ray</w>": 3077,
      "finished</w>": 3078,
      "way": 3079,
      "sd": 3080,
      "accoun": 3081,
      "ðŁĴķ</w>": 3082,
      "cky</w>": 3083,
      "chel": 3084,
      "liter": 3085,
      "painting</w>": 3086,
      "los</w>": 3087,
      "stun": 3088,
      "technology</w>": 3089,
      "nas": 3090,
      "mar</w>": 3091,
      "bil": 3092,
      "africa</w>": 3093,
      "kie</w>": 3094,
      "eyes</w>": 3095,
      "golf</w>": 3096,
      "plus</w>": 3097,
      "nia</w>": 3098,
      "itec": 3099,
      "services</w>": 3100,
      "wedding</w>": 3101,
      "known</w>": 3102,
      "tele": 3103,
      ".....</w>": 3104,
      "starts</w>": 3105,
      "paren": 3106,
      "wants</w>": 3107,
      "ational</w>": 3108,
      "months</w>": 3109,
      "windo": 3110,
      "favour": 3111,
      "ert</w>": 3112,
      "magazine</w>": 3113,
      "exclu": 3114,
      "reve": 3115,
      "bc": 3116,
      "original</w>": 3117,
      "ess": 3118,
      "nal</w>": 3119,
      "anti": 3120,
      "stro": 3121,
      "tice</w>": 3122,
      "study</w>": 3123,
      "à¤": 3124,
      "vac": 3125,
      "national": 3126,
      "five</w>": 3127,
      "rain": 3128,
      "vement</w>": 3129,
      "ute</w>": 3130,
      "verse</w>": 3131,
      "emer": 3132,
      "army</w>": 3133,
      "possible</w>": 3134,
      "guess</w>": 3135,
      "valley</w>": 3136,
      "thern</w>": 3137,
      "crow": 3138,
      "mr": 3139,
      "color</w>": 3140,
      "onto</w>": 3141,
      "pick</w>": 3142,
      "clear</w>": 3143,
      "dark</w>": 3144,
      "tac": 3145,
      "wanted</w>": 3146,
      "itting</w>": 3147,
      "cancer</w>": 3148,
      "government</w>": 3149,
      "die": 3150,
      "rise</w>": 3151,
      "zing</w>": 3152,
      "cold</w>": 3153,
      "foun": 3154,
      "studio</w>": 3155,
      "stration</w>": 3156,
      "brother</w>": 3157,
      "ahead</w>": 3158,
      "shel": 3159,
      "micro": 3160,
      "ically</w>": 3161,
      "dau": 3162,
      "signed</w>": 3163,
      "viol": 3164,
      "ax": 3165,
      "asse": 3166,
      "io": 3167,
      "wre": 3168,
      "splay</w>": 3169,
      "chick": 3170,
      "august</w>": 3171,
      "plat": 3172,
      "tips</w>": 3173,
      "spi": 3174,
      "human": 3175,
      "easy</w>": 3176,
      "logi": 3177,
      "mike</w>": 3178,
      "grow": 3179,
      "agre": 3180,
      "ww": 3181,
      "shad": 3182,
      "motiv": 3183,
      "wide</w>": 3184,
      "turns</w>": 3185,
      "omg</w>": 3186,
      "var": 3187,
      "defin": 3188,
      "sug": 3189,
      "jim": 3190,
      "ðŁĶ¥": 3191,
      "td</w>": 3192,
      "campaign</w>": 3193,
      "named</w>": 3194,
      "retweet</w>": 3195,
      "cop": 3196,
      "tv": 3197,
      "leav": 3198,
      "kis": 3199,
      "double</w>": 3200,
      "smar": 3201,
      "issue</w>": 3202,
      "villa": 3203,
      "information</w>": 3204,
      "lies</w>": 3205,
      "stock</w>": 3206,
      "nt</w>": 3207,
      "distric": 3208,
      "shor": 3209,
      "mix": 3210,
      "ero": 3211,
      "sep": 3212,
      "mex": 3213,
      "seeing</w>": 3214,
      "live": 3215,
      "remin": 3216,
      "code</w>": 3217,
      "gur": 3218,
      "sc</w>": 3219,
      "wild</w>": 3220,
      "lun": 3221,
      "hood</w>": 3222,
      "spot": 3223,
      "father</w>": 3224,
      "forever</w>": 3225,
      "upd": 3226,
      "traf": 3227,
      "fly</w>": 3228,
      "need": 3229,
      "gradu": 3230,
      "train</w>": 3231,
      "make": 3232,
      "sab": 3233,
      "bey": 3234,
      "size</w>": 3235,
      "leader</w>": 3236,
      "talks</w>": 3237,
      "eu</w>": 3238,
      "log": 3239,
      "fox</w>": 3240,
      "gorgeous</w>": 3241,
      "less": 3242,
      "lets</w>": 3243,
      "surpri": 3244,
      "myself</w>": 3245,
      "note</w>": 3246,
      "lives</w>": 3247,
      "fru": 3248,
      "loved</w>": 3249,
      "sever": 3250,
      "dem": 3251,
      "ji": 3252,
      "soc": 3253,
      "hold</w>": 3254,
      "dogs</w>": 3255,
      "ni</w>": 3256,
      "âŀ": 3257,
      "leave</w>": 3258,
      "airport</w>": 3259,
      "benef": 3260,
      "expl": 3261,
      "ships</w>": 3262,
      "complete</w>": 3263,
      "achi": 3264,
      "great": 3265,
      "vintage</w>": 3266,
      "jack</w>": 3267,
      "roc": 3268,
      "wood": 3269,
      "priv": 3270,
      "offer</w>": 3271,
      "eye</w>": 3272,
      "version</w>": 3273,
      "tea</w>": 3274,
      "coach": 3275,
      "offic": 3276,
      "well": 3277,
      "gen</w>": 3278,
      "sat</w>": 3279,
      "hh": 3280,
      "youth</w>": 3281,
      "ox": 3282,
      "?\"</w>": 3283,
      "mt</w>": 3284,
      "mix</w>": 3285,
      "gg</w>": 3286,
      "dle</w>": 3287,
      "natural</w>": 3288,
      "build</w>": 3289,
      "breakfast</w>": 3290,
      "thinking</w>": 3291,
      "theatre</w>": 3292,
      "moon</w>": 3293,
      "berg</w>": 3294,
      "goals</w>": 3295,
      "george</w>": 3296,
      "ene": 3297,
      "excell": 3298,
      "iling</w>": 3299,
      "tune</w>": 3300,
      "yed</w>": 3301,
      "gate</w>": 3302,
      "mit": 3303,
      "network</w>": 3304,
      "joe</w>": 3305,
      "hello</w>": 3306,
      "fb</w>": 3307,
      "tube</w>": 3308,
      "wearing</w>": 3309,
      "athle": 3310,
      "struc": 3311,
      "hard": 3312,
      "glass</w>": 3313,
      "gers</w>": 3314,
      "throw": 3315,
      "ges</w>": 3316,
      "bt": 3317,
      "industry</w>": 3318,
      "management</w>": 3319,
      "alist</w>": 3320,
      "goal</w>": 3321,
      "stream</w>": 3322,
      "yel": 3323,
      "avi": 3324,
      "icious</w>": 3325,
      "others</w>": 3326,
      "ski": 3327,
      "christi": 3328,
      "bird</w>": 3329,
      "esc": 3330,
      "min</w>": 3331,
      "tro</w>": 3332,
      "lt</w>": 3333,
      "jan</w>": 3334,
      "imp": 3335,
      "rights</w>": 3336,
      "sha</w>": 3337,
      "organ": 3338,
      "central</w>": 3339,
      "ara</w>": 3340,
      "roll</w>": 3341,
      "favourite</w>": 3342,
      "chester</w>": 3343,
      "else</w>": 3344,
      "pay</w>": 3345,
      "cars</w>": 3346,
      "mine</w>": 3347,
      "step</w>": 3348,
      "practice</w>": 3349,
      "major</w>": 3350,
      "hang": 3351,
      "ðŁĺĺ</w>": 3352,
      "non</w>": 3353,
      "vari": 3354,
      "engine": 3355,
      "volun": 3356,
      "dia</w>": 3357,
      "iled</w>": 3358,
      "architec": 3359,
      "pink</w>": 3360,
      "ds": 3361,
      "thy</w>": 3362,
      "wash": 3363,
      "website</w>": 3364,
      "bag</w>": 3365,
      "control</w>": 3366,
      "elli": 3367,
      "fra": 3368,
      "answ": 3369,
      "dence</w>": 3370,
      "yu": 3371,
      "ron</w>": 3372,
      "ola</w>": 3373,
      "gin": 3374,
      "drin": 3375,
      "lic</w>": 3376,
      "couple</w>": 3377,
      "spar": 3378,
      "gon</w>": 3379,
      "create</w>": 3380,
      "ct": 3381,
      "celebrating</w>": 3382,
      "deep</w>": 3383,
      "eat</w>": 3384,
      "tee</w>": 3385,
      "voice</w>": 3386,
      "drop</w>": 3387,
      "visit": 3388,
      "ators</w>": 3389,
      "stadium</w>": 3390,
      "ft": 3391,
      "wis": 3392,
      "rol": 3393,
      "grade</w>": 3394,
      "famil": 3395,
      "points</w>": 3396,
      "repre": 3397,
      "was": 3398,
      "traffic</w>": 3399,
      "japan</w>": 3400,
      "org": 3401,
      "honor</w>": 3402,
      "texas</w>": 3403,
      "manu": 3404,
      "âĻ¥</w>": 3405,
      "safety</w>": 3406,
      "rer</w>": 3407,
      "bag": 3408,
      "emplo": 3409,
      "released</w>": 3410,
      "regu": 3411,
      "aka</w>": 3412,
      "nav": 3413,
      "role</w>": 3414,
      "senior</w>": 3415,
      "spect</w>": 3416,
      "cross</w>": 3417,
      "lines</w>": 3418,
      "best": 3419,
      "pack</w>": 3420,
      "sin</w>": 3421,
      "tie</w>": 3422,
      "missing</w>": 3423,
      "sunset</w>": 3424,
      "liber": 3425,
      "ising</w>": 3426,
      "jay": 3427,
      "ski</w>": 3428,
      "championship</w>": 3429,
      "activ": 3430,
      "ladies</w>": 3431,
      "played</w>": 3432,
      "yy": 3433,
      "publ": 3434,
      "alo": 3435,
      "pride</w>": 3436,
      "sr": 3437,
      "paki": 3438,
      "lux": 3439,
      "survi": 3440,
      "cked</w>": 3441,
      "ets</w>": 3442,
      "chocol": 3443,
      "australia</w>": 3444,
      "paris</w>": 3445,
      "miles</w>": 3446,
      "hat": 3447,
      "mental</w>": 3448,
      "ala</w>": 3449,
      "mean</w>": 3450,
      "mobile</w>": 3451,
      "ena</w>": 3452,
      "insi": 3453,
      "found": 3454,
      "chief</w>": 3455,
      "tag": 3456,
      "incredible</w>": 3457,
      "return</w>": 3458,
      "Ã©": 3459,
      "google</w>": 3460,
      "french</w>": 3461,
      "crew</w>": 3462,
      "hallo": 3463,
      "alian</w>": 3464,
      "jaz": 3465,
      "cher</w>": 3466,
      "silver</w>": 3467,
      "north": 3468,
      "english</w>": 3469,
      "baseball</w>": 3470,
      "caf": 3471,
      "limited</w>": 3472,
      "following</w>": 3473,
      "appreci": 3474,
      "earth</w>": 3475,
      "kir": 3476,
      "vember</w>": 3477,
      "wed</w>": 3478,
      "ption</w>": 3479,
      "ged</w>": 3480,
      "october</w>": 3481,
      "flori": 3482,
      "cr</w>": 3483,
      "ency</w>": 3484,
      "gave</w>": 3485,
      "lord</w>": 3486,
      "stuff</w>": 3487,
      "berry</w>": 3488,
      "post": 3489,
      "smile</w>": 3490,
      "broad": 3491,
      "state": 3492,
      "gger</w>": 3493,
      "means</w>": 3494,
      "icy</w>": 3495,
      "gun</w>": 3496,
      "yo</w>": 3497,
      "master</w>": 3498,
      "burg</w>": 3499,
      "hands</w>": 3500,
      "nie</w>": 3501,
      "//</w>": 3502,
      "union</w>": 3503,
      "british</w>": 3504,
      "biggest</w>": 3505,
      "district</w>": 3506,
      "aming</w>": 3507,
      "hil": 3508,
      "oce": 3509,
      "person": 3510,
      "pass</w>": 3511,
      "envir": 3512,
      "schools</w>": 3513,
      "arrived</w>": 3514,
      "ances</w>": 3515,
      "inspired</w>": 3516,
      "expla": 3517,
      "ben</w>": 3518,
      "library</w>": 3519,
      "bott": 3520,
      "amp": 3521,
      "steph": 3522,
      "contact</w>": 3523,
      "bang": 3524,
      "ms": 3525,
      "califor": 3526,
      "told</w>": 3527,
      "battle</w>": 3528,
      "bb</w>": 3529,
      "chicago</w>": 3530,
      "âľ¨</w>": 3531,
      "strate": 3532,
      "shi</w>": 3533,
      "dece": 3534,
      "-)</w>": 3535,
      "add</w>": 3536,
      "lab": 3537,
      "jones</w>": 3538,
      "legend</w>": 3539,
      "castle</w>": 3540,
      "inger</w>": 3541,
      "stance</w>": 3542,
      "bel</w>": 3543,
      "ura</w>": 3544,
      "refu": 3545,
      "leaders</w>": 3546,
      "pot": 3547,
      "sex": 3548,
      "hic": 3549,
      "article</w>": 3550,
      "kid</w>": 3551,
      "france</w>": 3552,
      "xx</w>": 3553,
      "exe": 3554,
      "guide</w>": 3555,
      "volunte": 3556,
      "print</w>": 3557,
      "ali</w>": 3558,
      "ceo</w>": 3559,
      "tweets</w>": 3560,
      "wx</w>": 3561,
      "scene</w>": 3562,
      "volu": 3563,
      "anti</w>": 3564,
      "han</w>": 3565,
      "associ": 3566,
      "sharing</w>": 3567,
      "rose</w>": 3568,
      "minister</w>": 3569,
      "sher": 3570,
      "inste": 3571,
      "clean": 3572,
      "democr": 3573,
      "poster</w>": 3574,
      "skin</w>": 3575,
      "psy": 3576,
      "proper": 3577,
      "crazy</w>": 3578,
      "iam": 3579,
      "ore": 3580,
      "ini</w>": 3581,
      "anything</w>": 3582,
      "pod": 3583,
      "moving</w>": 3584,
      "click</w>": 3585,
      "explo": 3586,
      "comb": 3587,
      "craft</w>": 3588,
      "fi</w>": 3589,
      "blood</w>": 3590,
      "isra": 3591,
      "public": 3592,
      "dent": 3593,
      "olym": 3594,
      "england</w>": 3595,
      "asi": 3596,
      "cher": 3597,
      "fact</w>": 3598,
      "environ": 3599,
      "harry</w>": 3600,
      "gone</w>": 3601,
      "medic": 3602,
      "enjoying</w>": 3603,
      "justice</w>": 3604,
      "jr</w>": 3605,
      "indian</w>": 3606,
      "wife</w>": 3607,
      "sound</w>": 3608,
      "tes</w>": 3609,
      "drawing</w>": 3610,
      "pal</w>": 3611,
      "idea</w>": 3612,
      "crit": 3613,
      "juli": 3614,
      "iler</w>": 3615,
      "warm</w>": 3616,
      "clar": 3617,
      "thoughts</w>": 3618,
      "defen": 3619,
      "council</w>": 3620,
      "introduc": 3621,
      "died</w>": 3622,
      "janu": 3623,
      "ani</w>": 3624,
      "send</w>": 3625,
      "lier</w>": 3626,
      "ml": 3627,
      "interesting</w>": 3628,
      "trade</w>": 3629,
      "wind</w>": 3630,
      "bay": 3631,
      "sac": 3632,
      "ancy</w>": 3633,
      "source</w>": 3634,
      "bes</w>": 3635,
      "organi": 3636,
      "arly</w>": 3637,
      "large</w>": 3638,
      "ffici": 3639,
      "tag</w>": 3640,
      "ut</w>": 3641,
      "desp": 3642,
      "oes</w>": 3643,
      "title</w>": 3644,
      "sym": 3645,
      "pictures</w>": 3646,
      "open": 3647,
      "women": 3648,
      "showing</w>": 3649,
      "ria</w>": 3650,
      "least</w>": 3651,
      "leadership</w>": 3652,
      "current</w>": 3653,
      "electr": 3654,
      "valent": 3655,
      "listening</w>": 3656,
      "ckey</w>": 3657,
      "general</w>": 3658,
      "deser": 3659,
      "duce</w>": 3660,
      ";)</w>": 3661,
      "cent</w>": 3662,
      "ðŁĺįðŁĺį": 3663,
      "scott</w>": 3664,
      "poor</w>": 3665,
      "selfie</w>": 3666,
      "events</w>": 3667,
      "ion</w>": 3668,
      "wrong</w>": 3669,
      "dev</w>": 3670,
      "hill": 3671,
      "septe": 3672,
      "culture</w>": 3673,
      "line": 3674,
      "sorry</w>": 3675,
      "sent</w>": 3676,
      "sister</w>": 3677,
      "cept</w>": 3678,
      "kri": 3679,
      "november</w>": 3680,
      "ari</w>": 3681,
      "announce</w>": 3682,
      "zation</w>": 3683,
      "bran": 3684,
      "gent": 3685,
      "du</w>": 3686,
      "len": 3687,
      "pers": 3688,
      "fm</w>": 3689,
      "martin</w>": 3690,
      "op</w>": 3691,
      "emb": 3692,
      "ome": 3693,
      "middle</w>": 3694,
      "success": 3695,
      "peter</w>": 3696,
      "january</w>": 3697,
      "flu": 3698,
      "racing</w>": 3699,
      "dav": 3700,
      "bike</w>": 3701,
      "ðŁı»</w>": 3702,
      "pet</w>": 3703,
      "shoot</w>": 3704,
      "professi": 3705,
      "featuring</w>": 3706,
      "september</w>": 3707,
      "nowplaying</w>": 3708,
      "staur": 3709,
      "za": 3710,
      "onic</w>": 3711,
      "quick</w>": 3712,
      "baske": 3713,
      "speaking</w>": 3714,
      "milit": 3715,
      "zer</w>": 3716,
      "chicken</w>": 3717,
      "bell</w>": 3718,
      "sad</w>": 3719,
      "coast</w>": 3720,
      "loving</w>": 3721,
      "yers</w>": 3722,
      "dj</w>": 3723,
      "panel</w>": 3724,
      "verage</w>": 3725,
      "swit": 3726,
      "icks</w>": 3727,
      "bou": 3728,
      "california</w>": 3729,
      "sam</w>": 3730,
      "parents</w>": 3731,
      "ero</w>": 3732,
      "killed</w>": 3733,
      "phys": 3734,
      "jobs</w>": 3735,
      "migr": 3736,
      "anth": 3737,
      "emo": 3738,
      "halloween</w>": 3739,
      "ander": 3740,
      "cm</w>": 3741,
      "competition</w>": 3742,
      "eag": 3743,
      "sket": 3744,
      "spir": 3745,
      "maybe</w>": 3746,
      "exclusive</w>": 3747,
      "appe": 3748,
      "journey</w>": 3749,
      "screen</w>": 3750,
      "ford": 3751,
      "io</w>": 3752,
      "hate</w>": 3753,
      "ug": 3754,
      "soul</w>": 3755,
      "hero</w>": 3756,
      "society</w>": 3757,
      "syn": 3758,
      "guit": 3759,
      "nh": 3760,
      "dj": 3761,
      "ases</w>": 3762,
      "impre": 3763,
      "time": 3764,
      "sales</w>": 3765,
      "dd</w>": 3766,
      "fts</w>": 3767,
      "summit</w>": 3768,
      "stunning</w>": 3769,
      "oms</w>": 3770,
      "turned</w>": 3771,
      "clean</w>": 3772,
      "soft</w>": 3773,
      "beat": 3774,
      "restaur": 3775,
      "dered</w>": 3776,
      "ences</w>": 3777,
      "magic</w>": 3778,
      "dio": 3779,
      "shine</w>": 3780,
      "guest</w>": 3781,
      "healthy</w>": 3782,
      "exhib": 3783,
      "stories</w>": 3784,
      "popu": 3785,
      "nis</w>": 3786,
      "ela</w>": 3787,
      "below</w>": 3788,
      "funny</w>": 3789,
      "results</w>": 3790,
      "sne": 3791,
      "currently</w>": 3792,
      "ard": 3793,
      "download</w>": 3794,
      "flight</w>": 3795,
      "mal</w>": 3796,
      "fine</w>": 3797,
      "pad": 3798,
      "chu": 3799,
      "ented</w>": 3800,
      "hat</w>": 3801,
      "ðŁĳı": 3802,
      "steve</w>": 3803,
      "jo</w>": 3804,
      "mark": 3805,
      "rat": 3806,
      "ball": 3807,
      "pc</w>": 3808,
      "pon": 3809,
      "bby</w>": 3810,
      "oli": 3811,
      "arts</w>": 3812,
      "asure</w>": 3813,
      "bowl</w>": 3814,
      "attack</w>": 3815,
      "mic</w>": 3816,
      "dear</w>": 3817,
      "range</w>": 3818,
      "enter</w>": 3819,
      "chocolate</w>": 3820,
      "brilli": 3821,
      "access</w>": 3822,
      ",\"</w>": 3823,
      "???</w>": 3824,
      "chap": 3825,
      "const": 3826,
      "tn": 3827,
      "matter</w>": 3828,
      "blue": 3829,
      "gallery</w>": 3830,
      "emp": 3831,
      "workshop</w>": 3832,
      "leading</w>": 3833,
      "yours</w>": 3834,
      "basketball</w>": 3835,
      "wanna</w>": 3836,
      "thu": 3837,
      "__</w>": 3838,
      "marri": 3839,
      "sleep</w>": 3840,
      "bia</w>": 3841,
      "che</w>": 3842,
      "mad</w>": 3843,
      "impact</w>": 3844,
      "own": 3845,
      "sir</w>": 3846,
      "channel</w>": 3847,
      "europe</w>": 3848,
      "esp": 3849,
      "kitch": 3850,
      "hospital</w>": 3851,
      "wra": 3852,
      "royal</w>": 3853,
      "fs</w>": 3854,
      "neu": 3855,
      "quar": 3856,
      "ney": 3857,
      "acks</w>": 3858,
      "chase</w>": 3859,
      "ppy</w>": 3860,
      "stal": 3861,
      "ately</w>": 3862,
      "tim</w>": 3863,
      "december</w>": 3864,
      "rare</w>": 3865,
      "perform": 3866,
      "cream</w>": 3867,
      "weight</w>": 3868,
      "choo": 3869,
      "night": 3870,
      "haven</w>": 3871,
      "franc": 3872,
      "khan</w>": 3873,
      "built</w>": 3874,
      "helping</w>": 3875,
      "trust</w>": 3876,
      "type</w>": 3877,
      "golden</w>": 3878,
      "tax</w>": 3879,
      "snow": 3880,
      "swi": 3881,
      "disa": 3882,
      "questions</w>": 3883,
      "vey</w>": 3884,
      "light": 3885,
      "cn": 3886,
      "cloud</w>": 3887,
      "thomas</w>": 3888,
      "aged</w>": 3889,
      "shou": 3890,
      "teams</w>": 3891,
      "gran": 3892,
      "reason</w>": 3893,
      "aa</w>": 3894,
      "youtube</w>": 3895,
      "vp</w>": 3896,
      "pizz": 3897,
      "manager</w>": 3898,
      "bury</w>": 3899,
      "credit</w>": 3900,
      "treat</w>": 3901,
      "max</w>": 3902,
      "ik": 3903,
      "main": 3904,
      "ging</w>": 3905,
      "dead": 3906,
      "probab": 3907,
      "yeah</w>": 3908,
      "ãĤ": 3909,
      "brand": 3910,
      "soli": 3911,
      "plant</w>": 3912,
      "tayl": 3913,
      "girl": 3914,
      "ðŁĺŃ</w>": 3915,
      "nament</w>": 3916,
      "auto": 3917,
      "message</w>": 3918,
      "kore": 3919,
      "nur": 3920,
      "terr": 3921,
      "agu": 3922,
      "map</w>": 3923,
      "senting</w>": 3924,
      "loves</w>": 3925,
      "gives</w>": 3926,
      "gab": 3927,
      "zen</w>": 3928,
      "robert</w>": 3929,
      "confir": 3930,
      "wars</w>": 3931,
      "om</w>": 3932,
      "stain": 3933,
      "camera</w>": 3934,
      "ander</w>": 3935,
      "wonder</w>": 3936,
      "ab</w>": 3937,
      "cap</w>": 3938,
      "sold</w>": 3939,
      "suit</w>": 3940,
      "walking</w>": 3941,
      "continue</w>": 3942,
      "effec": 3943,
      "daughter</w>": 3944,
      "danc": 3945,
      "chain</w>": 3946,
      "multi": 3947,
      "kid": 3948,
      "yan": 3949,
      "champion</w>": 3950,
      "vo</w>": 3951,
      "tains</w>": 3952,
      "host</w>": 3953,
      "mini</w>": 3954,
      "missed</w>": 3955,
      "resc": 3956,
      "lyn": 3957,
      "finish</w>": 3958,
      "delicious</w>": 3959,
      "sas": 3960,
      "taylor</w>": 3961,
      "ib": 3962,
      "promis": 3963,
      "products</w>": 3964,
      "mountain</w>": 3965,
      "florida</w>": 3966,
      "register</w>": 3967,
      "treat": 3968,
      "recent</w>": 3969,
      "female</w>": 3970,
      "booth</w>": 3971,
      "matt</w>": 3972,
      "vehic": 3973,
      "sop": 3974,
      "motor": 3975,
      "supporting</w>": 3976,
      "phic</w>": 3977,
      "extre": 3978,
      "drink</w>": 3979,
      "lane</w>": 3980,
      "third</w>": 3981,
      "ps": 3982,
      "constru": 3983,
      "cere": 3984,
      "farm</w>": 3985,
      "ðŁİī</w>": 3986,
      "tured</w>": 3987,
      "ðŁĳī</w>": 3988,
      "cats</w>": 3989,
      "aj": 3990,
      "gie</w>": 3991,
      "shooting</w>": 3992,
      "asked</w>": 3993,
      "pakistan</w>": 3994,
      "ame": 3995,
      "mb</w>": 3996,
      "gil": 3997,
      "legal</w>": 3998,
      "square</w>": 3999,
      "invol": 4000,
      "draw</w>": 4001,
      "oooo": 4002,
      "!!!!": 4003,
      "opportunity</w>": 4004,
      "py": 4005,
      "ei": 4006,
      "bts</w>": 4007,
      "teacher</w>": 4008,
      "character</w>": 4009,
      "johnson</w>": 4010,
      "bron": 4011,
      "lywood</w>": 4012,
      "chine": 4013,
      "cing</w>": 4014,
      "cine": 4015,
      "dge": 4016,
      "gaming</w>": 4017,
      "russia</w>": 4018,
      "cia</w>": 4019,
      "quote</w>": 4020,
      "rich</w>": 4021,
      "gov": 4022,
      "flowers</w>": 4023,
      "spiri": 4024,
      "stin</w>": 4025,
      "growth</w>": 4026,
      "ðŁı¼</w>": 4027,
      "commer": 4028,
      "juni": 4029,
      "mum</w>": 4030,
      "ran</w>": 4031,
      "sna": 4032,
      "aren": 4033,
      "cb": 4034,
      "actor</w>": 4035,
      "color": 4036,
      "sit</w>": 4037,
      "pair</w>": 4038,
      "chi</w>": 4039,
      "bow</w>": 4040,
      "academy</w>": 4041,
      "held</w>": 4042,
      "rang": 4043,
      "metal</w>": 4044,
      "yl</w>": 4045,
      "active</w>": 4046,
      "probably</w>": 4047,
      "tch</w>": 4048,
      "needed</w>": 4049,
      "spee": 4050,
      "choice</w>": 4051,
      "italy</w>": 4052,
      "ryan</w>": 4053,
      "ðŁĩº": 4054,
      "flower</w>": 4055,
      "vit": 4056,
      "mn</w>": 4057,
      "foundation</w>": 4058,
      "bak": 4059,
      "sions</w>": 4060,
      "neigh": 4061,
      "floo": 4062,
      "heard</w>": 4063,
      "remo": 4064,
      "fresh": 4065,
      "inging</w>": 4066,
      "ref": 4067,
      "town": 4068,
      "clou": 4069,
      "jesus</w>": 4070,
      "spirit</w>": 4071,
      "couldn</w>": 4072,
      "zes</w>": 4073,
      "ðŁĴĻ</w>": 4074,
      "williams</w>": 4075,
      "proce": 4076,
      "modern</w>": 4077,
      "process</w>": 4078,
      "shoes</w>": 4079,
      "created</w>": 4080,
      "tric</w>": 4081,
      "issues</w>": 4082,
      "anne</w>": 4083,
      "atten": 4084,
      "debut</w>": 4085,
      "hr</w>": 4086,
      "nit": 4087,
      "stig": 4088,
      "apo": 4089,
      "eps</w>": 4090,
      "zu": 4091,
      "ãĢ": 4092,
      "six</w>": 4093,
      "cards</w>": 4094,
      "langu": 4095,
      "famous</w>": 4096,
      "tournament</w>": 4097,
      "sel</w>": 4098,
      "ebay</w>": 4099,
      "yn</w>": 4100,
      "ston": 4101,
      "kick": 4102,
      "announced</w>": 4103,
      "kam": 4104,
      "voc": 4105,
      "brilliant</w>": 4106,
      "house": 4107,
      "cheese</w>": 4108,
      "warri": 4109,
      "music": 4110,
      "hockey</w>": 4111,
      "ðŁĺĤðŁĺĤ</w>": 4112,
      "skills</w>": 4113,
      "autom": 4114,
      "smart</w>": 4115,
      "medical</w>": 4116,
      "mony</w>": 4117,
      "ex</w>": 4118,
      "guar": 4119,
      "give": 4120,
      "personal</w>": 4121,
      "vention</w>": 4122,
      "alli": 4123,
      "press": 4124,
      "floor</w>": 4125,
      "mc</w>": 4126,
      "victory</w>": 4127,
      "him": 4128,
      "simple</w>": 4129,
      "thor": 4130,
      "ðŁĩºðŁĩ": 4131,
      "tail</w>": 4132,
      "lucky</w>": 4133,
      "alex</w>": 4134,
      "quite</w>": 4135,
      "bot": 4136,
      "ssions</w>": 4137,
      "challeng": 4138,
      "cann": 4139,
      "amazon</w>": 4140,
      "hell</w>": 4141,
      "bought</w>": 4142,
      "):</w>": 4143,
      "edy</w>": 4144,
      "secret</w>": 4145,
      "production</w>": 4146,
      "independ": 4147,
      "defe": 4148,
      "added</w>": 4149,
      "pr</w>": 4150,
      "pag": 4151,
      "bed": 4152,
      "greatest</w>": 4153,
      "within</w>": 4154,
      "jay</w>": 4155,
      "ðŁ¥": 4156,
      "ireland</w>": 4157,
      "rely</w>": 4158,
      "sd</w>": 4159,
      "text</w>": 4160,
      "driving</w>": 4161,
      "program": 4162,
      "speed</w>": 4163,
      "colum": 4164,
      "stron": 4165,
      "Ã©</w>": 4166,
      "forest</w>": 4167,
      "âĸ": 4168,
      "machine</w>": 4169,
      "coin</w>": 4170,
      "scar": 4171,
      "ount</w>": 4172,
      "bie</w>": 4173,
      "¡ï¸ı</w>": 4174,
      "portra": 4175,
      "common</w>": 4176,
      "wrest": 4177,
      "received</w>": 4178,
      "know": 4179,
      "invest": 4180,
      "plans</w>": 4181,
      "accor": 4182,
      "adop": 4183,
      "tery</w>": 4184,
      "reali": 4185,
      "pp</w>": 4186,
      "kal": 4187,
      "artwork</w>": 4188,
      "mean": 4189,
      "god": 4190,
      "instead</w>": 4191,
      "anci": 4192,
      "motivation</w>": 4193,
      "asing</w>": 4194,
      "inspiration</w>": 4195,
      "upcoming</w>": 4196,
      "political</w>": 4197,
      "europe": 4198,
      "mers</w>": 4199,
      "heavy</w>": 4200,
      "ðŁĳį</w>": 4201,
      "febru": 4202,
      "scotland</w>": 4203,
      "ough": 4204,
      "bt</w>": 4205,
      "boss</w>": 4206,
      "schedu": 4207,
      "speak</w>": 4208,
      "nick": 4209,
      "ured</w>": 4210,
      "ino": 4211,
      "ek": 4212,
      "risk</w>": 4213,
      "tory</w>": 4214,
      "presents</w>": 4215,
      "bon</w>": 4216,
      "rug": 4217,
      "states</w>": 4218,
      "exhibition</w>": 4219,
      "ilo": 4220,
      "mill": 4221,
      "brought</w>": 4222,
      ":-)</w>": 4223,
      "touri": 4224,
      "come": 4225,
      "officially</w>": 4226,
      "champions</w>": 4227,
      "doors</w>": 4228,
      "rep": 4229,
      "pose</w>": 4230,
      "extra</w>": 4231,
      "kings</w>": 4232,
      "soccer</w>": 4233,
      "squad</w>": 4234,
      "applic": 4235,
      "ata</w>": 4236,
      "sometimes</w>": 4237,
      "tari": 4238,
      "excellent</w>": 4239,
      "ðŁĺĺ": 4240,
      "straight</w>": 4241,
      "carol": 4242,
      "rip</w>": 4243,
      "âĢį": 4244,
      "graphic</w>": 4245,
      "mol": 4246,
      "election</w>": 4247,
      "february</w>": 4248,
      "asons</w>": 4249,
      "li</w>": 4250,
      "dir": 4251,
      "mt": 4252,
      "nick</w>": 4253,
      "usu": 4254,
      "mrs</w>": 4255,
      "comics</w>": 4256,
      "institu": 4257,
      "corpor": 4258,
      "vi</w>": 4259,
      "ðŁĻı": 4260,
      "tural</w>": 4261,
      "dise": 4262,
      "acci": 4263,
      "weare": 4264,
      "among</w>": 4265,
      "shopping</w>": 4266,
      "till</w>": 4267,
      "what": 4268,
      "chair</w>": 4269,
      "span": 4270,
      "chinese</w>": 4271,
      "innovation</w>": 4272,
      "joy</w>": 4273,
      "kit</w>": 4274,
      "century</w>": 4275,
      "obama</w>": 4276,
      "phili": 4277,
      "fc": 4278,
      "reach</w>": 4279,
      "citi": 4280,
      "ulous</w>": 4281,
      "non": 4282,
      "dang": 4283,
      "happening</w>": 4284,
      "burn</w>": 4285,
      "pel": 4286,
      "orange</w>": 4287,
      "dv": 4288,
      "kick</w>": 4289,
      "claim": 4290,
      "ingham</w>": 4291,
      "phy</w>": 4292,
      "nov</w>": 4293,
      "podcast</w>": 4294,
      "whi": 4295,
      "nights</w>": 4296,
      "earlier</w>": 4297,
      "bear</w>": 4298,
      "lah</w>": 4299,
      "exciting</w>": 4300,
      "ora</w>": 4301,
      "given</w>": 4302,
      "slo": 4303,
      "memories</w>": 4304,
      "continues</w>": 4305,
      "product</w>": 4306,
      "gho": 4307,
      "cd": 4308,
      "knows</w>": 4309,
      "ðŁİī": 4310,
      "published</w>": 4311,
      "discuss</w>": 4312,
      "yard</w>": 4313,
      "iphone</w>": 4314,
      "tries</w>": 4315,
      "wall": 4316,
      "feb</w>": 4317,
      "aren</w>": 4318,
      "truth</w>": 4319,
      "winners</w>": 4320,
      "ture": 4321,
      "ditional</w>": 4322,
      "military</w>": 4323,
      "problem</w>": 4324,
      "mand": 4325,
      "dog": 4326,
      "loss</w>": 4327,
      "cric": 4328,
      "canadi": 4329,
      "veter": 4330,
      "village</w>": 4331,
      "\",</w>": 4332,
      "yr</w>": 4333,
      "ung</w>": 4334,
      "donald</w>": 4335,
      "aging</w>": 4336,
      "birds</w>": 4337,
      "scienti": 4338,
      "les": 4339,
      "this": 4340,
      "region</w>": 4341,
      "tical</w>": 4342,
      "itten</w>": 4343,
      "ila</w>": 4344,
      "ðŁĺİ</w>": 4345,
      "dad": 4346,
      "diam": 4347,
      "above</w>": 4348,
      "stren": 4349,
      "lit</w>": 4350,
      "pir": 4351,
      "lab</w>": 4352,
      "focus</w>": 4353,
      "busy</w>": 4354,
      "dur": 4355,
      "apply</w>": 4356,
      "sma": 4357,
      "author</w>": 4358,
      "aci": 4359,
      "execu": 4360,
      "domin": 4361,
      "rela": 4362,
      "jackson</w>": 4363,
      "ato</w>": 4364,
      "washington</w>": 4365,
      "ðŁĻĮ": 4366,
      "kill</w>": 4367,
      "popular</w>": 4368,
      "cement</w>": 4369,
      "road": 4370,
      "eating</w>": 4371,
      "location</w>": 4372,
      "vent": 4373,
      "arre": 4374,
      "nan": 4375,
      "custo": 4376,
      "adventure</w>": 4377,
      "ordin": 4378,
      "sport": 4379,
      "ult</w>": 4380,
      "lock</w>": 4381,
      "question</w>": 4382,
      "driver</w>": 4383,
      "landsc": 4384,
      "oni": 4385,
      "kins</w>": 4386,
      "pd": 4387,
      "jordan</w>": 4388,
      "tered</w>": 4389,
      "kk": 4390,
      "af</w>": 4391,
      "child": 4392,
      "sp</w>": 4393,
      "justin</w>": 4394,
      "eni": 4395,
      "selling</w>": 4396,
      "zo": 4397,
      "whit": 4398,
      "boston</w>": 4399,
      "particip": 4400,
      "signing</w>": 4401,
      "happened</w>": 4402,
      "heat</w>": 4403,
      "mam": 4404,
      "dreams</w>": 4405,
      "lows</w>": 4406,
      "graph</w>": 4407,
      "theday</w>": 4408,
      "heading</w>": 4409,
      "bro</w>": 4410,
      "blessed</w>": 4411,
      "vic</w>": 4412,
      "vegas</w>": 4413,
      "hd</w>": 4414,
      "inning</w>": 4415,
      "roman": 4416,
      "andro": 4417,
      "denti": 4418,
      "use": 4419,
      "cit": 4420,
      "progress</w>": 4421,
      "writer</w>": 4422,
      "bob</w>": 4423,
      "ffs</w>": 4424,
      "growing</w>": 4425,
      "bly</w>": 4426,
      "aware": 4427,
      "exam": 4428,
      "spent</w>": 4429,
      "bet</w>": 4430,
      "score</w>": 4431,
      "beyond</w>": 4432,
      "docu": 4433,
      "adel": 4434,
      "sf": 4435,
      "coura": 4436,
      "collabor": 4437,
      "inc</w>": 4438,
      "private</w>": 4439,
      "boat</w>": 4440,
      "**</w>": 4441,
      "zone</w>": 4442,
      "pha": 4443,
      "bill": 4444,
      "total</w>": 4445,
      "planning</w>": 4446,
      "towards</w>": 4447,
      "places</w>": 4448,
      "preview</w>": 4449,
      "creative</w>": 4450,
      "damn</w>": 4451,
      "ideas</w>": 4452,
      "seems</w>": 4453,
      "poten": 4454,
      "saying</w>": 4455,
      "display</w>": 4456,
      "sw</w>": 4457,
      "aqu": 4458,
      "louis</w>": 4459,
      "bye</w>": 4460,
      "lil</w>": 4461,
      "email</w>": 4462,
      "western</w>": 4463,
      "germany</w>": 4464,
      "eller</w>": 4465,
      "res": 4466,
      "fant": 4467,
      "mentary</w>": 4468,
      "deals</w>": 4469,
      "richard</w>": 4470,
      "jersey</w>": 4471,
      "streng": 4472,
      "rad": 4473,
      "pizza</w>": 4474,
      "mond</w>": 4475,
      "ware</w>": 4476,
      "lac": 4477,
      "gi</w>": 4478,
      "archi": 4479,
      "cd</w>": 4480,
      "yellow</w>": 4481,
      "recently</w>": 4482,
      "reach": 4483,
      "à¹": 4484,
      "kitchen</w>": 4485,
      "designed</w>": 4486,
      "try": 4487,
      "gal</w>": 4488,
      "restaurant</w>": 4489,
      "ature</w>": 4490,
      "ww</w>": 4491,
      "jas": 4492,
      "lma": 4493,
      "ðŁĳĮ</w>": 4494,
      "pain</w>": 4495,
      "avo": 4496,
      "minute</w>": 4497,
      "schol": 4498,
      "therap": 4499,
      "ticket</w>": 4500,
      "dry</w>": 4501,
      "japan": 4502,
      "ditions</w>": 4503,
      "terri": 4504,
      "selves</w>": 4505,
      "happen</w>": 4506,
      "tup</w>": 4507,
      "mag</w>": 4508,
      "copy</w>": 4509,
      "sher</w>": 4510,
      "freedom</w>": 4511,
      "file</w>": 4512,
      "specially</w>": 4513,
      "toronto</w>": 4514,
      "load": 4515,
      "gary</w>": 4516,
      "rey</w>": 4517,
      "answer</w>": 4518,
      "loy": 4519,
      "caught</w>": 4520,
      "prize</w>": 4521,
      "une": 4522,
      "fication</w>": 4523,
      "niger": 4524,
      "syd": 4525,
      "touch</w>": 4526,
      "feature</w>": 4527,
      "jazz</w>": 4528,
      "records</w>": 4529,
      "himself</w>": 4530,
      "dish</w>": 4531,
      "rober": 4532,
      "spotted</w>": 4533,
      "master": 4534,
      "wave</w>": 4535,
      "finals</w>": 4536,
      "bull": 4537,
      "forum</w>": 4538,
      "ald": 4539,
      "recomm": 4540,
      "cha</w>": 4541,
      "ae</w>": 4542,
      "doo": 4543,
      "instru": 4544,
      "truly</w>": 4545,
      "lg": 4546,
      "ink": 4547,
      "brothers</w>": 4548,
      "dest</w>": 4549,
      "jim</w>": 4550,
      "mit</w>": 4551,
      "closed</w>": 4552,
      "ison</w>": 4553,
      "tried</w>": 4554,
      "santa</w>": 4555,
      "affe": 4556,
      "wan</w>": 4557,
      "horse</w>": 4558,
      "grow</w>": 4559,
      "campus</w>": 4560,
      "relation": 4561,
      "native</w>": 4562,
      "journ": 4563,
      "gov</w>": 4564,
      "oct</w>": 4565,
      "kit": 4566,
      "bound</w>": 4567,
      "partner</w>": 4568,
      "rema": 4569,
      "crowd</w>": 4570,
      "!)</w>": 4571,
      "calls</w>": 4572,
      "rail": 4573,
      "quali": 4574,
      "solution</w>": 4575,
      "contest</w>": 4576,
      "convers": 4577,
      "snap": 4578,
      "base</w>": 4579,
      "initi": 4580,
      "tax": 4581,
      "ye</w>": 4582,
      "entrepre": 4583,
      "itor</w>": 4584,
      "construction</w>": 4585,
      "food": 4586,
      "presented</w>": 4587,
      "nings</w>": 4588,
      "climate</w>": 4589,
      "km</w>": 4590,
      "model": 4591,
      "bj": 4592,
      "block</w>": 4593,
      "presentation</w>": 4594,
      "dream": 4595,
      "fix": 4596,
      "calling</w>": 4597,
      "busine": 4598,
      "congress</w>": 4599,
      "understand</w>": 4600,
      "web</w>": 4601,
      "value</w>": 4602,
      "ï¸ıâĥ£</w>": 4603,
      "mexico</w>": 4604,
      "itely</w>": 4605,
      "kim</w>": 4606,
      "charity</w>": 4607,
      "reflec": 4608,
      "blan": 4609,
      "flying</w>": 4610,
      "analy": 4611,
      "families</w>": 4612,
      "band": 4613,
      "recipe</w>": 4614,
      "celebration</w>": 4615,
      "accep": 4616,
      "ary": 4617,
      "tot": 4618,
      "gb</w>": 4619,
      "interested</w>": 4620,
      "captain</w>": 4621,
      "âĻ¥": 4622,
      "tip</w>": 4623,
      "absol": 4624,
      "braz": 4625,
      "investig": 4626,
      "ology</w>": 4627,
      "dec</w>": 4628,
      "truck</w>": 4629,
      "vering</w>": 4630,
      "clear": 4631,
      "dont</w>": 4632,
      "gotta</w>": 4633,
      "advis": 4634,
      "begins</w>": 4635,
      "mass": 4636,
      "descri": 4637,
      "block": 4638,
      "kim": 4639,
      "david": 4640,
      "songs</w>": 4641,
      "memorial</w>": 4642,
      "features</w>": 4643,
      "sustain": 4644,
      "'.</w>": 4645,
      "grab</w>": 4646,
      "jose": 4647,
      "va": 4648,
      "conserv": 4649,
      "sets</w>": 4650,
      "manchester</w>": 4651,
      "fighting</w>": 4652,
      "degre": 4653,
      "aga</w>": 4654,
      "ind</w>": 4655,
      "sleep": 4656,
      "position</w>": 4657,
      "hair": 4658,
      "signs</w>": 4659,
      "policy</w>": 4660,
      "ito</w>": 4661,
      "alert</w>": 4662,
      "stam": 4663,
      "spend</w>": 4664,
      "wy": 4665,
      "absolut": 4666,
      "dm</w>": 4667,
      "animal</w>": 4668,
      "myster": 4669,
      "successful</w>": 4670,
      "problems</w>": 4671,
      "robo": 4672,
      "kay": 4673,
      "garden": 4674,
      "pd</w>": 4675,
      "mayor</w>": 4676,
      "dale</w>": 4677,
      "tol": 4678,
      "offers</w>": 4679,
      "visiting</w>": 4680,
      "friendly</w>": 4681,
      "trees</w>": 4682,
      "officer</w>": 4683,
      "account</w>": 4684,
      "kevin</w>": 4685,
      "ðŁĳį": 4686,
      "giant</w>": 4687,
      "continu": 4688,
      "consu": 4689,
      "tract</w>": 4690,
      "nfl</w>": 4691,
      "ðŁĺĬ": 4692,
      "hq</w>": 4693,
      "bility</w>": 4694,
      "aar": 4695,
      "disney</w>": 4696,
      "teen</w>": 4697,
      "oned</w>": 4698,
      "white": 4699,
      "trailer</w>": 4700,
      "dedic": 4701,
      "alone</w>": 4702,
      "absolutely</w>": 4703,
      "digital": 4704,
      "william</w>": 4705,
      "ination</w>": 4706,
      "swa": 4707,
      "ee</w>": 4708,
      "entire</w>": 4709,
      "german</w>": 4710,
      "roll": 4711,
      "hits</w>": 4712,
      "cost</w>": 4713,
      "stay": 4714,
      "tha</w>": 4715,
      "alive</w>": 4716,
      "according</w>": 4717,
      "cot": 4718,
      "literally</w>": 4719,
      "herit": 4720,
      "reti": 4721,
      "hahaha</w>": 4722,
      "experi": 4723,
      "likes</w>": 4724,
      "gt</w>": 4725,
      "steel</w>": 4726,
      "____": 4727,
      "chair": 4728,
      "christian</w>": 4729,
      "tower</w>": 4730,
      "difference</w>": 4731,
      "md</w>": 4732,
      "tress</w>": 4733,
      "mid</w>": 4734,
      "prince</w>": 4735,
      "african</w>": 4736,
      "feder": 4737,
      "foot</w>": 4738,
      "carri": 4739,
      "served</w>": 4740,
      "rice</w>": 4741,
      "shall</w>": 4742,
      "featured</w>": 4743,
      "cker</w>": 4744,
      "recru": 4745,
      "poe": 4746,
      "sense</w>": 4747,
      "nific": 4748,
      "comedy</w>": 4749,
      "content</w>": 4750,
      "fat": 4751,
      "posted</w>": 4752,
      "contribu": 4753,
      "timate</w>": 4754,
      "liver": 4755,
      "mble</w>": 4756,
      "internet</w>": 4757,
      "age": 4758,
      "european</w>": 4759,
      "cling</w>": 4760,
      "glad</w>": 4761,
      "ffic": 4762,
      "sco</w>": 4763,
      "akes</w>": 4764,
      "elle</w>": 4765,
      "termin": 4766,
      "tony</w>": 4767,
      "pale": 4768,
      "colour</w>": 4769,
      "serious</w>": 4770,
      "patri": 4771,
      "movies</w>": 4772,
      "bm": 4773,
      "professional</w>": 4774,
      "ado": 4775,
      "alu": 4776,
      "bringing</w>": 4777,
      "falls</w>": 4778,
      "israel</w>": 4779,
      "term</w>": 4780,
      "language</w>": 4781,
      "brook": 4782,
      "mann</w>": 4783,
      "communic": 4784,
      "cannot</w>": 4785,
      "acti": 4786,
      "phe": 4787,
      "yan</w>": 4788,
      "entreprene": 4789,
      "turkey</w>": 4790,
      "logical</w>": 4791,
      "long": 4792,
      "arm</w>": 4793,
      "urs</w>": 4794,
      "workers</w>": 4795,
      "ingly</w>": 4796,
      "ggs</w>": 4797,
      "ric</w>": 4798,
      "tual</w>": 4799,
      "receive</w>": 4800,
      "opens</w>": 4801,
      "gear</w>": 4802,
      "social": 4803,
      "feet</w>": 4804,
      "cking</w>": 4805,
      "adver": 4806,
      "finan": 4807,
      "feels</w>": 4808,
      "spla": 4809,
      "hr": 4810,
      "easter</w>": 4811,
      "brain</w>": 4812,
      "ãģ": 4813,
      "fig": 4814,
      "ledge</w>": 4815,
      "nearly</w>": 4816,
      "protect</w>": 4817,
      "massive</w>": 4818,
      "eth": 4819,
      "awa": 4820,
      "ðŁĺģ</w>": 4821,
      "yrs</w>": 4822,
      "awareness</w>": 4823,
      "definitely</w>": 4824,
      "kn": 4825,
      "imagine</w>": 4826,
      "ku</w>": 4827,
      "systems</w>": 4828,
      "ðŁĳı</w>": 4829,
      "fas": 4830,
      "lik": 4831,
      "provide</w>": 4832,
      "amo": 4833,
      "discover</w>": 4834,
      "influ": 4835,
      "maker</w>": 4836,
      "gaz": 4837,
      "fitness</w>": 4838,
      "street": 4839,
      "ers": 4840,
      "ted": 4841,
      "wc": 4842,
      "ysis</w>": 4843,
      "positive</w>": 4844,
      "helped</w>": 4845,
      "quest</w>": 4846,
      "andrew</w>": 4847,
      "brad": 4848,
      "bin": 4849,
      "hanging</w>": 4850,
      "ling": 4851,
      "bright</w>": 4852,
      "section</w>": 4853,
      "mass</w>": 4854,
      "ðŁĻĮ</w>": 4855,
      "followers</w>": 4856,
      "hosting</w>": 4857,
      "tempor": 4858,
      "flag</w>": 4859,
      "ave</w>": 4860,
      "letter</w>": 4861,
      "kur": 4862,
      "requi": 4863,
      "often</w>": 4864,
      "cryp": 4865,
      "suff": 4866,
      "âļ½": 4867,
      "russian</w>": 4868,
      "treatment</w>": 4869,
      "alle": 4870,
      "hay": 4871,
      "lan</w>": 4872,
      "keeping</w>": 4873,
      "holy</w>": 4874,
      "powerful</w>": 4875,
      "predic": 4876,
      "fund</w>": 4877,
      "especially</w>": 4878,
      "window</w>": 4879,
      "jewel": 4880,
      "ily": 4881,
      "ðŁĴľ</w>": 4882,
      "generation</w>": 4883,
      "appa": 4884,
      "seriously</w>": 4885,
      "od": 4886,
      "ðŁĺĤðŁĺĤðŁĺĤ</w>": 4887,
      "certi": 4888,
      "irish</w>": 4889,
      "ðŁĳĮ": 4890,
      "miami</w>": 4891,
      "beth</w>": 4892,
      "vity</w>": 4893,
      "secu": 4894,
      "chef</w>": 4895,
      "crime</w>": 4896,
      "graphy</w>": 4897,
      "max": 4898,
      "artists</w>": 4899,
      "revolu": 4900,
      "guard</w>": 4901,
      "speech</w>": 4902,
      "uc": 4903,
      "updates</w>": 4904,
      "faces</w>": 4905,
      "stant</w>": 4906,
      "changed</w>": 4907,
      "reports</w>": 4908,
      "lower</w>": 4909,
      "pear": 4910,
      "nc</w>": 4911,
      "kil": 4912,
      "looked</w>": 4913,
      "speaker</w>": 4914,
      "sf</w>": 4915,
      "respect</w>": 4916,
      "okay</w>": 4917,
      "ocean</w>": 4918,
      "sitting</w>": 4919,
      "architecture</w>": 4920,
      "trail</w>": 4921,
      "seat</w>": 4922,
      "ira": 4923,
      "leg</w>": 4924,
      "japanese</w>": 4925,
      "dam</w>": 4926,
      "ular</w>": 4927,
      "swim": 4928,
      "politics</w>": 4929,
      "financial</w>": 4930,
      "old": 4931,
      "mouth</w>": 4932,
      "attemp": 4933,
      "destin": 4934,
      "fishing</w>": 4935,
      "attention</w>": 4936,
      "mem": 4937,
      "changes</w>": 4938,
      "decided</w>": 4939,
      "religi": 4940,
      "gin</w>": 4941,
      "cav": 4942,
      "zz</w>": 4943,
      "adam</w>": 4944,
      "mac</w>": 4945,
      "write</w>": 4946,
      "begin</w>": 4947,
      "scul": 4948,
      "alter": 4949,
      "iss</w>": 4950,
      "athon</w>": 4951,
      "images</w>": 4952,
      "moo": 4953,
      "joined</w>": 4954,
      "ðŁĺī</w>": 4955,
      "âŀ¡ï¸ı</w>": 4956,
      "passed</w>": 4957,
      "musli": 4958,
      "hir": 4959,
      "largest</w>": 4960,
      "camer": 4961,
      "comic</w>": 4962,
      "ghted</w>": 4963,
      "rugby</w>": 4964,
      "burgh</w>": 4965,
      "gging</w>": 4966,
      "testing</w>": 4967,
      "prepar": 4968,
      "laugh": 4969,
      "aled</w>": 4970,
      "improve</w>": 4971,
      "believ": 4972,
      "advice</w>": 4973,
      "shares</w>": 4974,
      "heart": 4975,
      "turning</w>": 4976,
      "sb</w>": 4977,
      "tel": 4978,
      "cafe</w>": 4979,
      "nes</w>": 4980,
      "daniel</w>": 4981,
      "patter": 4982,
      "tz</w>": 4983,
      "sett": 4984,
      "park": 4985,
      "cand": 4986,
      "stick</w>": 4987,
      "happens</w>": 4988,
      "brian</w>": 4989,
      "newest</w>": 4990,
      "epic</w>": 4991,
      "ador": 4992,
      "kies</w>": 4993,
      "warning</w>": 4994,
      "animals</w>": 4995,
      "custom</w>": 4996,
      "arc": 4997,
      "dian</w>": 4998,
      "gold": 4999,
      "core</w>": 5000,
      "tf</w>": 5001,
      "city": 5002,
      "pants</w>": 5003,
      "reality</w>": 5004,
      "confi": 5005,
      "inju": 5006,
      "fox": 5007,
      "guil": 5008,
      "knew</w>": 5009,
      "âĺº": 5010,
      "correc": 5011,
      "itude</w>": 5012,
      "dden</w>": 5013,
      ".#</w>": 5014,
      "reduc": 5015,
      "pass": 5016,
      "fon": 5017,
      "ya": 5018,
      "owner</w>": 5019,
      "returns</w>": 5020,
      "nc": 5021,
      "east": 5022,
      "apol": 5023,
      "insur": 5024,
      "tho</w>": 5025,
      "sim": 5026,
      "junior</w>": 5027,
      "bee</w>": 5028,
      "angel": 5029,
      "attle</w>": 5030,
      "electric</w>": 5031,
      "horror</w>": 5032,
      "crash</w>": 5033,
      "eye": 5034,
      "path</w>": 5035,
      "southern</w>": 5036,
      "employe": 5037,
      "geo": 5038,
      "tan</w>": 5039,
      "haz": 5040,
      "rally</w>": 5041,
      "ðŁı»": 5042,
      "property</w>": 5043,
      "wasn</w>": 5044,
      "enjoyed</w>": 5045,
      "grey</w>": 5046,
      "gas": 5047,
      "brew": 5048,
      "northern</w>": 5049,
      "holding</w>": 5050,
      "gp</w>": 5051,
      "take": 5052,
      "chart</w>": 5053,
      "lyn</w>": 5054,
      "drama</w>": 5055,
      "zo</w>": 5056,
      "paid</w>": 5057,
      "throwback</w>": 5058,
      "cup": 5059,
      "discussion</w>": 5060,
      "downtown</w>": 5061,
      "will": 5062,
      "lew": 5063,
      "bis": 5064,
      "tary</w>": 5065,
      "bread</w>": 5066,
      "upon</w>": 5067,
      "rate</w>": 5068,
      "teachers</w>": 5069,
      "itation</w>": 5070,
      "anced</w>": 5071,
      "cycle</w>": 5072,
      "choose</w>": 5073,
      "dc": 5074,
      "iran</w>": 5075,
      "cow": 5076,
      "dave</w>": 5077,
      "raise</w>": 5078,
      "princess</w>": 5079,
      "faith</w>": 5080,
      "-></w>": 5081,
      "industri": 5082,
      "spain</w>": 5083,
      "guitar</w>": 5084,
      "facts</w>": 5085,
      "mn": 5086,
      "spen": 5087,
      "courte": 5088,
      "gott": 5089,
      "projects</w>": 5090,
      "audi": 5091,
      "osc": 5092,
      "peter": 5093,
      "sand</w>": 5094,
      "interest</w>": 5095,
      "happiness</w>": 5096,
      "venue</w>": 5097,
      "soldi": 5098,
      "surprise</w>": 5099,
      "potential</w>": 5100,
      "perio": 5101,
      "customer</w>": 5102,
      "ii": 5103,
      "gni": 5104,
      "manufac": 5105,
      "eco": 5106,
      "broken</w>": 5107,
      "singer</w>": 5108,
      "vels</w>": 5109,
      "wales</w>": 5110,
      "hus": 5111,
      "inj": 5112,
      "four": 5113,
      "talent</w>": 5114,
      "dying</w>": 5115,
      "matthe": 5116,
      "film": 5117,
      "joining</w>": 5118,
      "sell</w>": 5119,
      "jar": 5120,
      "lmao</w>": 5121,
      "surger": 5122,
      "bbc": 5123,
      "sources</w>": 5124,
      "austin</w>": 5125,
      "nik": 5126,
      "charles</w>": 5127,
      "fam</w>": 5128,
      "princi": 5129,
      "angel</w>": 5130,
      "cash</w>": 5131,
      "lot": 5132,
      "ored</w>": 5133,
      "plays</w>": 5134,
      "plate</w>": 5135,
      "done": 5136,
      "memory</w>": 5137,
      "brings</w>": 5138,
      "nba</w>": 5139,
      "solutions</w>": 5140,
      "teaching</w>": 5141,
      "grace</w>": 5142,
      "circu": 5143,
      "helps</w>": 5144,
      "founder</w>": 5145,
      "mary": 5146,
      "explore</w>": 5147,
      "decor": 5148,
      "parts</w>": 5149,
      "cho</w>": 5150,
      "integr": 5151,
      "hau": 5152,
      "ises</w>": 5153,
      "putting</w>": 5154,
      "iner</w>": 5155,
      "rit": 5156,
      "vy</w>": 5157,
      "michel": 5158,
      "blues</w>": 5159,
      "everyday</w>": 5160,
      "forms</w>": 5161,
      "bio</w>": 5162,
      "year": 5163,
      "pin</w>": 5164,
      "tter</w>": 5165,
      "spring": 5166,
      "))</w>": 5167,
      "pot</w>": 5168,
      "aling</w>": 5169,
      "performing</w>": 5170,
      "shan": 5171,
      "planet</w>": 5172,
      "musical</w>": 5173,
      "heads</w>": 5174,
      "italian</w>": 5175,
      "strugg": 5176,
      "âĢįâĻ": 5177,
      "wings</w>": 5178,
      "pump": 5179,
      "hh</w>": 5180,
      "trou": 5181,
      "aid</w>": 5182,
      "prime</w>": 5183,
      "earth": 5184,
      "paint</w>": 5185,
      "mont": 5186,
      "amy</w>": 5187,
      "bbc</w>": 5188,
      "fabulous</w>": 5189,
      "fruit</w>": 5190,
      "android</w>": 5191,
      "bourne</w>": 5192,
      "ceremony</w>": 5193,
      "ential</w>": 5194,
      "??": 5195,
      "debate</w>": 5196,
      "oning</w>": 5197,
      "draft</w>": 5198,
      "solar</w>": 5199,
      "tx</w>": 5200,
      "jam</w>": 5201,
      "corn": 5202,
      "!!!!!</w>": 5203,
      "broo": 5204,
      "milk</w>": 5205,
      "posed</w>": 5206,
      "ohi": 5207,
      "movement</w>": 5208,
      "bren": 5209,
      "partner": 5210,
      "pg</w>": 5211,
      "ette</w>": 5212,
      "aries</w>": 5213,
      "shout</w>": 5214,
      "ng</w>": 5215,
      "leaving</w>": 5216,
      "tells</w>": 5217,
      "sens": 5218,
      "taste</w>": 5219,
      "kelly</w>": 5220,
      "worl": 5221,
      "gym</w>": 5222,
      "rich": 5223,
      "egy": 5224,
      "pid</w>": 5225,
      "mas": 5226,
      "âĤ": 5227,
      "courtesy</w>": 5228,
      "frank</w>": 5229,
      "increase</w>": 5230,
      "written</w>": 5231,
      "ppers</w>": 5232,
      "rel</w>": 5233,
      "hai</w>": 5234,
      "sas</w>": 5235,
      "sound": 5236,
      "tti</w>": 5237,
      "wich</w>": 5238,
      "river": 5239,
      "...\"</w>": 5240,
      "ag</w>": 5241,
      "fellow</w>": 5242,
      "rome</w>": 5243,
      "small": 5244,
      "gency</w>": 5245,
      "ican</w>": 5246,
      "luxury</w>": 5247,
      "proof</w>": 5248,
      "met": 5249,
      "wildlife</w>": 5250,
      "moments</w>": 5251,
      "rather</w>": 5252,
      "corner</w>": 5253,
      "compe": 5254,
      "canadian</w>": 5255,
      "likely</w>": 5256,
      "therapy</w>": 5257,
      "liam": 5258,
      "economic</w>": 5259,
      "indie": 5260,
      "route</w>": 5261,
      "fight": 5262,
      "hope": 5263,
      "setting</w>": 5264,
      "antly</w>": 5265,
      "cross": 5266,
      "fantasy</w>": 5267,
      "dee": 5268,
      "sketch</w>": 5269,
      "compli": 5270,
      "ymi</w>": 5271,
      "rules</w>": 5272,
      "engineering</w>": 5273,
      "figure</w>": 5274,
      "row": 5275,
      ".,</w>": 5276,
      "fw</w>": 5277,
      "sydney</w>": 5278,
      "wou": 5279,
      "tation</w>": 5280,
      "drew</w>": 5281,
      "uses</w>": 5282,
      "there": 5283,
      "spread</w>": 5284,
      "structure</w>": 5285,
      "patrick</w>": 5286,
      "apparently</w>": 5287,
      "ros": 5288,
      "hills</w>": 5289,
      "wwe</w>": 5290,
      "anny</w>": 5291,
      "commission</w>": 5292,
      "div": 5293,
      "fying</w>": 5294,
      "consul": 5295,
      "analysis</w>": 5296,
      "exi": 5297,
      "tennis</w>": 5298,
      "vehicle</w>": 5299,
      "ðŁĺŃðŁĺŃ": 5300,
      "ass</w>": 5301,
      "highly</w>": 5302,
      "opened</w>": 5303,
      "bann": 5304,
      "ðŁĴĻ": 5305,
      "mph</w>": 5306,
      "wishing</w>": 5307,
      "vor</w>": 5308,
      "fif": 5309,
      "giveaway</w>": 5310,
      "rr": 5311,
      "ray": 5312,
      "jess": 5313,
      "gat": 5314,
      "icymi</w>": 5315,
      "xit</w>": 5316,
      "highest</w>": 5317,
      "york": 5318,
      "pie</w>": 5319,
      "involved</w>": 5320,
      "higher</w>": 5321,
      "rie</w>": 5322,
      "malay": 5323,
      "intelli": 5324,
      "despite</w>": 5325,
      "chee": 5326,
      "sarah</w>": 5327,
      "bean</w>": 5328,
      "recogni": 5329,
      "arsen": 5330,
      "talented</w>": 5331,
      "passion</w>": 5332,
      "ich": 5333,
      "abc</w>": 5334,
      "leads</w>": 5335,
      "disease</w>": 5336,
      "vis</w>": 5337,
      "sec</w>": 5338,
      "presenting</w>": 5339,
      "milli": 5340,
      "hole</w>": 5341,
      "shots</w>": 5342,
      "depart": 5343,
      "surgery</w>": 5344,
      "govt</w>": 5345,
      "bin</w>": 5346,
      "dual</w>": 5347,
      "evi": 5348,
      "longer</w>": 5349,
      "evol": 5350,
      "screen": 5351,
      "portrait</w>": 5352,
      "etc</w>": 5353,
      "lose</w>": 5354,
      "chat": 5355,
      "pen</w>": 5356,
      "pi</w>": 5357,
      "oma</w>": 5358,
      "sick</w>": 5359,
      "erc": 5360,
      "companies</w>": 5361,
      "entry</w>": 5362,
      "plane</w>": 5363,
      "gry</w>": 5364,
      "vene": 5365,
      "liverpool</w>": 5366,
      "premiere</w>": 5367,
      "shared</w>": 5368,
      "ared</w>": 5369,
      "films</w>": 5370,
      "ira</w>": 5371,
      "holidays</w>": 5372,
      "cricket</w>": 5373,
      "ician</w>": 5374,
      "ving": 5375,
      ".)</w>": 5376,
      "ultimate</w>": 5377,
      "division</w>": 5378,
      "conduc": 5379,
      "sept</w>": 5380,
      "forces</w>": 5381,
      "mont</w>": 5382,
      "smart": 5383,
      "disapp": 5384,
      "sunshine</w>": 5385,
      "ind": 5386,
      "bless</w>": 5387,
      "made": 5388,
      "colors</w>": 5389,
      "frank": 5390,
      "iron</w>": 5391,
      "bottle</w>": 5392,
      "sgo": 5393,
      "mood</w>": 5394,
      "jason</w>": 5395,
      "eric</w>": 5396,
      "birth</w>": 5397,
      "teen": 5398,
      "response</w>": 5399,
      "target</w>": 5400,
      "statement</w>": 5401,
      "fear</w>": 5402,
      "thel": 5403,
      "alum": 5404,
      "arab": 5405,
      "blin</w>": 5406,
      "direction</w>": 5407,
      "steps</w>": 5408,
      "erial</w>": 5409,
      "worked</w>": 5410,
      "atl": 5411,
      "ðŁĴķ": 5412,
      "felt</w>": 5413,
      "poli</w>": 5414,
      "scenes</w>": 5415,
      "homes</w>": 5416,
      "bell": 5417,
      "eat": 5418,
      "ateful</w>": 5419,
      "tin</w>": 5420,
      "lace</w>": 5421,
      "folks</w>": 5422,
      "pse</w>": 5423,
      "ann</w>": 5424,
      "wisdom</w>": 5425,
      "fav</w>": 5426,
      "butter": 5427,
      "sr</w>": 5428,
      "areas</w>": 5429,
      "smoo": 5430,
      "biz</w>": 5431,
      "dges</w>": 5432,
      "appo": 5433,
      "more": 5434,
      "them": 5435,
      "effect</w>": 5436,
      "windows</w>": 5437,
      "sunny</w>": 5438,
      "capital</w>": 5439,
      "totally</w>": 5440,
      "cities</w>": 5441,
      "grant</w>": 5442,
      "mbers</w>": 5443,
      "slow</w>": 5444,
      "autu": 5445,
      "ilities</w>": 5446,
      "wro": 5447,
      "rising</w>": 5448,
      "stics</w>": 5449,
      "violence</w>": 5450,
      "igh</w>": 5451,
      "quot": 5452,
      "hit": 5453,
      "tc</w>": 5454,
      "heritage</w>": 5455,
      "buff": 5456,
      "nes": 5457,
      "zar": 5458,
      "dential</w>": 5459,
      "exac": 5460,
      "edge</w>": 5461,
      "deep": 5462,
      "arena</w>": 5463,
      "became</w>": 5464,
      "benefits</w>": 5465,
      "marks</w>": 5466,
      "mber": 5467,
      "az</w>": 5468,
      "ames</w>": 5469,
      "preci": 5470,
      "dragon</w>": 5471,
      "reg": 5472,
      "dings</w>": 5473,
      "dos</w>": 5474,
      "ðŁĴª": 5475,
      "nel": 5476,
      "sity</w>": 5477,
      "meal</w>": 5478,
      "dist": 5479,
      "legend": 5480,
      "purchase</w>": 5481,
      "pical</w>": 5482,
      "stick": 5483,
      "fat</w>": 5484,
      "duba": 5485,
      "profess": 5486,
      "carto": 5487,
      "prof</w>": 5488,
      "countries</w>": 5489,
      "responsi": 5490,
      "sequ": 5491,
      "fab</w>": 5492,
      "tribute</w>": 5493,
      "honored</w>": 5494,
      "practic": 5495,
      "purple</w>": 5496,
      "anton": 5497,
      "pared</w>": 5498,
      "tough</w>": 5499,
      "summer": 5500,
      "environment</w>": 5501,
      "sons</w>": 5502,
      "ðŁĻı</w>": 5503,
      "mps</w>": 5504,
      "gies</w>": 5505,
      "heroes</w>": 5506,
      "telling</w>": 5507,
      "henry</w>": 5508,
      "fen": 5509,
      "knowledge</w>": 5510,
      "Ģï¸ı</w>": 5511,
      "fr</w>": 5512,
      "neg": 5513,
      "ure": 5514,
      "acking</w>": 5515,
      "hearts</w>": 5516,
      "soo": 5517,
      "hollywood</w>": 5518,
      "jump": 5519,
      "sauce</w>": 5520,
      "schedule</w>": 5521,
      "turn": 5522,
      "yoga</w>": 5523,
      "creating</w>": 5524,
      "cket</w>": 5525,
      "creek</w>": 5526,
      "âŃ": 5527,
      "customers</w>": 5528,
      "madri": 5529,
      "gul": 5530,
      "assemb": 5531,
      "mount</w>": 5532,
      "cell</w>": 5533,
      "top": 5534,
      "stal</w>": 5535,
      "davis</w>": 5536,
      "twi": 5537,
      "sign": 5538,
      "premier</w>": 5539,
      "itions</w>": 5540,
      "hearing</w>": 5541,
      "unk</w>": 5542,
      "patients</w>": 5543,
      "appear": 5544,
      "heaven</w>": 5545,
      "alty</w>": 5546,
      "doctor</w>": 5547,
      "ae": 5548,
      "platform</w>": 5549,
      "jeff</w>": 5550,
      "ðŁĵ·</w>": 5551,
      "regional</w>": 5552,
      "bid</w>": 5553,
      "boxing</w>": 5554,
      "exten": 5555,
      "ority</w>": 5556,
      "aw</w>": 5557,
      "wise</w>": 5558,
      "ille</w>": 5559,
      "several</w>": 5560,
      "bie": 5561,
      "situ": 5562,
      "syria</w>": 5563,
      "âľħ</w>": 5564,
      "reminder</w>": 5565,
      "entertain": 5566,
      "lion</w>": 5567,
      "partners</w>": 5568,
      "inn</w>": 5569,
      "phar": 5570,
      "fau": 5571,
      "pls</w>": 5572,
      "expected</w>": 5573,
      "sugar</w>": 5574,
      "decision</w>": 5575,
      "sb": 5576,
      "chron": 5577,
      "association</w>": 5578,
      "leaves</w>": 5579,
      "visited</w>": 5580,
      "shap": 5581,
      "ðŁĴĸ</w>": 5582,
      "further</w>": 5583,
      "hann": 5584,
      "wi</w>": 5585,
      "runs</w>": 5586,
      "ler": 5587,
      "funding</w>": 5588,
      "filled</w>": 5589,
      "......</w>": 5590,
      "tiny</w>": 5591,
      "hang</w>": 5592,
      "org</w>": 5593,
      "cool": 5594,
      "semin": 5595,
      "ðŁıĨ</w>": 5596,
      "spons": 5597,
      "navy</w>": 5598,
      "saint</w>": 5599,
      "drug</w>": 5600,
      "dal</w>": 5601,
      "roun": 5602,
      "covered</w>": 5603,
      "traditional</w>": 5604,
      "investment</w>": 5605,
      "dete": 5606,
      "alism</w>": 5607,
      "flow</w>": 5608,
      "nis": 5609,
      "sunrise</w>": 5610,
      "feat</w>": 5611,
      "fted</w>": 5612,
      "weird</w>": 5613,
      "jere": 5614,
      "vegan</w>": 5615,
      "medicine</w>": 5616,
      "ano": 5617,
      "accu": 5618,
      "delivery</w>": 5619,
      "temple</w>": 5620,
      "changing</w>": 5621,
      "wilson</w>": 5622,
      "philipp": 5623,
      "refe": 5624,
      "nd": 5625,
      "iser</w>": 5626,
      "gay</w>": 5627,
      "rand": 5628,
      "atives</w>": 5629,
      "tely</w>": 5630,
      "pand": 5631,
      "intellig": 5632,
      "gare": 5633,
      "ambas": 5634,
      "demon": 5635,
      "committee</w>": 5636,
      "strategy</w>": 5637,
      "refuge": 5638,
      "budget</w>": 5639,
      "protec": 5640,
      "pier": 5641,
      "express</w>": 5642,
      "nomin": 5643,
      "economy</w>": 5644,
      "allow": 5645,
      "icon</w>": 5646,
      "galax": 5647,
      "oh": 5648,
      "indivi": 5649,
      "demand</w>": 5650,
      "virgin": 5651,
      "luke</w>": 5652,
      "alists</w>": 5653,
      "mani": 5654,
      "smi": 5655,
      "judge</w>": 5656,
      "enty</w>": 5657,
      "michi": 5658,
      "result</w>": 5659,
      "amed</w>": 5660,
      "speaks</w>": 5661,
      "',</w>": 5662,
      "houston</w>": 5663,
      "shin": 5664,
      "bing</w>": 5665,
      "fly": 5666,
      "chem": 5667,
      "auto</w>": 5668,
      "vas": 5669,
      "get": 5670,
      "arm": 5671,
      "thanks": 5672,
      "din</w>": 5673,
      "gang</w>": 5674,
      "xx": 5675,
      "sion": 5676,
      "located</w>": 5677,
      "pl</w>": 5678,
      "josh</w>": 5679,
      "info": 5680,
      "joins</w>": 5681,
      "adverti": 5682,
      "otd</w>": 5683,
      "eld</w>": 5684,
      "sie</w>": 5685,
      "reasons</w>": 5686,
      "vent</w>": 5687,
      "ðŁĩºðŁĩ¸</w>": 5688,
      "âł": 5689,
      "conversation</w>": 5690,
      "studi": 5691,
      "ðŁĶ¥ðŁĶ¥": 5692,
      "gos</w>": 5693,
      "sounds</w>": 5694,
      "unit</w>": 5695,
      "musc": 5696,
      "gel</w>": 5697,
      "acked</w>": 5698,
      "paci": 5699,
      "cos</w>": 5700,
      "dere": 5701,
      "uu": 5702,
      "ao</w>": 5703,
      "lam</w>": 5704,
      "inspiring</w>": 5705,
      "arms</w>": 5706,
      "tware</w>": 5707,
      "matters</w>": 5708,
      "addic": 5709,
      "dude</w>": 5710,
      "ext": 5711,
      "crisis</w>": 5712,
      "bath</w>": 5713,
      "meet": 5714,
      "singh</w>": 5715,
      "expect</w>": 5716,
      "delhi</w>": 5717,
      "rescue</w>": 5718,
      "worst</w>": 5719,
      "aug</w>": 5720,
      "shipping</w>": 5721,
      "serving</w>": 5722,
      "sto</w>": 5723,
      "dark": 5724,
      "aces</w>": 5725,
      "historic</w>": 5726,
      "landscape</w>": 5727,
      "designer</w>": 5728,
      "billion</w>": 5729,
      "grateful</w>": 5730,
      "wake</w>": 5731,
      "eve": 5732,
      "miller</w>": 5733,
      "housing</w>": 5734,
      "dynam": 5735,
      "isco</w>": 5736,
      "beha": 5737,
      "shop": 5738,
      "prou": 5739,
      "eas": 5740,
      "asia</w>": 5741,
      "eding</w>": 5742,
      "kon": 5743,
      "department</w>": 5744,
      "awar": 5745,
      "marine</w>": 5746,
      "inci": 5747,
      "photographer</w>": 5748,
      "tape</w>": 5749,
      "logo</w>": 5750,
      "rings</w>": 5751,
      "dit": 5752,
      "----": 5753,
      "vinyl</w>": 5754,
      "wc</w>": 5755,
      "voting</w>": 5756,
      "seven</w>": 5757,
      "ambassad": 5758,
      "dallas</w>": 5759,
      "tu</w>": 5760,
      "comment</w>": 5761,
      "kra": 5762,
      "bles</w>": 5763,
      "wag": 5764,
      "ud</w>": 5765,
      "audio</w>": 5766,
      "strike</w>": 5767,
      "official": 5768,
      "ots</w>": 5769,
      "metho": 5770,
      "tools</w>": 5771,
      "radi": 5772,
      "alan</w>": 5773,
      "hunt</w>": 5774,
      "watched</w>": 5775,
      "ake</w>": 5776,
      "fake</w>": 5777,
      "drinking</w>": 5778,
      "merry</w>": 5779,
      "ml</w>": 5780,
      "bday</w>": 5781,
      "rio</w>": 5782,
      "nike</w>": 5783,
      "cant</w>": 5784,
      "repe": 5785,
      "costu": 5786,
      "murder</w>": 5787,
      "akers</w>": 5788,
      "chers</w>": 5789,
      "outs</w>": 5790,
      "beginning</w>": 5791,
      "sos</w>": 5792,
      "ades</w>": 5793,
      "nin": 5794,
      "notes</w>": 5795,
      "wrote</w>": 5796,
      "solo</w>": 5797,
      "ci</w>": 5798,
      "lighting</w>": 5799,
      "urban</w>": 5800,
      "brexit</w>": 5801,
      "attend</w>": 5802,
      "shirts</w>": 5803,
      "playo": 5804,
      "actress</w>": 5805,
      "plic": 5806,
      "standard</w>": 5807,
      "quotes</w>": 5808,
      "parade</w>": 5809,
      "ancient</w>": 5810,
      "Â©</w>": 5811,
      "turing</w>": 5812,
      "ree</w>": 5813,
      "primary</w>": 5814,
      "flash</w>": 5815,
      "citiz": 5816,
      "mates</w>": 5817,
      "stein</w>": 5818,
      "zi</w>": 5819,
      "clinton</w>": 5820,
      "skin": 5821,
      "gene": 5822,
      "hum": 5823,
      "gar</w>": 5824,
      "tle</w>": 5825,
      "yi": 5826,
      "focu": 5827,
      "dean</w>": 5828,
      "plants</w>": 5829,
      "cyber": 5830,
      "bu</w>": 5831,
      "ome</w>": 5832,
      "hop</w>": 5833,
      "address</w>": 5834,
      "tix</w>": 5835,
      "gifts</w>": 5836,
      "relationship</w>": 5837,
      "subscri": 5838,
      "feed</w>": 5839,
      "exactly</w>": 5840,
      "hawks</w>": 5841,
      "exo</w>": 5842,
      "stress</w>": 5843,
      "sn</w>": 5844,
      "arrested</w>": 5845,
      "ane": 5846,
      "software</w>": 5847,
      "zero</w>": 5848,
      "theme</w>": 5849,
      "mumb": 5850,
      "immigr": 5851,
      "mia</w>": 5852,
      "makeup</w>": 5853,
      "pleasure</w>": 5854,
      "univers": 5855,
      "harb": 5856,
      "engine</w>": 5857,
      "aper</w>": 5858,
      "rin": 5859,
      "bra</w>": 5860,
      "institute</w>": 5861,
      "leather</w>": 5862,
      "alth</w>": 5863,
      "singing</w>": 5864,
      "cos": 5865,
      "ghty</w>": 5866,
      "meas": 5867,
      "stic": 5868,
      "side": 5869,
      "insurance</w>": 5870,
      "cot</w>": 5871,
      "pitch</w>": 5872,
      "mountains</w>": 5873,
      "crimin": 5874,
      "supre": 5875,
      "valentine</w>": 5876,
      "ater</w>": 5877,
      "wouldn</w>": 5878,
      "scale</w>": 5879,
      "related</w>": 5880,
      "regar": 5881,
      "startup</w>": 5882,
      "packed</w>": 5883,
      "mike": 5884,
      "weekly</w>": 5885,
      "pts</w>": 5886,
      "count</w>": 5887,
      "har</w>": 5888,
      "gotten</w>": 5889,
      "mind": 5890,
      "berlin</w>": 5891,
      "conditions</w>": 5892,
      "switch</w>": 5893,
      "corn</w>": 5894,
      "save": 5895,
      "gli": 5896,
      "emergency</w>": 5897,
      "tuned</w>": 5898,
      "stock": 5899,
      "discussing</w>": 5900,
      "everybody</w>": 5901,
      "sday": 5902,
      "whether</w>": 5903,
      "wrestling</w>": 5904,
      "eces</w>": 5905,
      "gender</w>": 5906,
      "chen": 5907,
      "ðŁĳĢ</w>": 5908,
      "madrid</w>": 5909,
      "marathon</w>": 5910,
      "egg</w>": 5911,
      "ier</w>": 5912,
      "thx</w>": 5913,
      "asking</w>": 5914,
      "korea</w>": 5915,
      "wolf</w>": 5916,
      "aya</w>": 5917,
      "gm</w>": 5918,
      "gau": 5919,
      "atory</w>": 5920,
      "vr</w>": 5921,
      "grass</w>": 5922,
      "killing</w>": 5923,
      "bble</w>": 5924,
      "uro</w>": 5925,
      "uni</w>": 5926,
      "eth</w>": 5927,
      "shore</w>": 5928,
      "then": 5929,
      "reale": 5930,
      "bottom</w>": 5931,
      "exerc": 5932,
      "kar</w>": 5933,
      "ories</w>": 5934,
      "adri": 5935,
      "sands</w>": 5936,
      "sex</w>": 5937,
      ".'</w>": 5938,
      "volunteers</w>": 5939,
      "perform</w>": 5940,
      "parliam": 5941,
      "include</w>": 5942,
      "delighted</w>": 5943,
      "executive</w>": 5944,
      "fuel</w>": 5945,
      "kiss</w>": 5946,
      "ãħ": 5947,
      "charge</w>": 5948,
      "hu</w>": 5949,
      "cakes</w>": 5950,
      "vet</w>": 5951,
      "glu": 5952,
      "agree</w>": 5953,
      "prices</w>": 5954,
      "nau": 5955,
      "hl</w>": 5956,
      "gru": 5957,
      "raj": 5958,
      "strength</w>": 5959,
      "bic": 5960,
      "spending</w>": 5961,
      "ales</w>": 5962,
      "aven": 5963,
      "blast</w>": 5964,
      ":(</w>": 5965,
      "yof": 5966,
      "normal</w>": 5967,
      "six": 5968,
      "quick": 5969,
      "sea": 5970,
      "daw": 5971,
      "meets</w>": 5972,
      "lovers</w>": 5973,
      "updated</w>": 5974,
      "potat": 5975,
      "completed</w>": 5976,
      "cook</w>": 5977,
      "opportunities</w>": 5978,
      "pure</w>": 5979,
      "organic</w>": 5980,
      "temper": 5981,
      "cam</w>": 5982,
      "avoid</w>": 5983,
      "parking</w>": 5984,
      "dubai</w>": 5985,
      "ando</w>": 5986,
      "distri": 5987,
      "toy</w>": 5988,
      "completely</w>": 5989,
      "donald": 5990,
      "trial</w>": 5991,
      "bass</w>": 5992,
      "boun": 5993,
      "background</w>": 5994,
      "vas</w>": 5995,
      "marvel</w>": 5996,
      "lum</w>": 5997,
      "rus</w>": 5998,
      "tool</w>": 5999,
      "commissi": 6000,
      "throwback": 6001,
      "finding</w>": 6002,
      "islam": 6003,
      "!?</w>": 6004,
      "stop": 6005,
      "evil</w>": 6006,
      "oral</w>": 6007,
      "residents</w>": 6008,
      "identi": 6009,
      "oak": 6010,
      "ðŁİ¶</w>": 6011,
      "lil": 6012,
      "spanish</w>": 6013,
      "chapter</w>": 6014,
      "stopped</w>": 6015,
      "direct</w>": 6016,
      "hosted</w>": 6017,
      "picked</w>": 6018,
      "labour</w>": 6019,
      "lewis</w>": 6020,
      "defense</w>": 6021,
      "à®": 6022,
      "healthcare</w>": 6023,
      "whis": 6024,
      "math</w>": 6025,
      "peak</w>": 6026,
      "raised</w>": 6027,
      "fix</w>": 6028,
      "bull</w>": 6029,
      "thir": 6030,
      "chelsea</w>": 6031,
      "folk</w>": 6032,
      "tre</w>": 6033,
      "candi": 6034,
      "paul": 6035,
      "either</w>": 6036,
      "adam": 6037,
      "poetry</w>": 6038,
      "jewelry</w>": 6039,
      "ðŁ¦": 6040,
      "pray</w>": 6041,
      "Ø§": 6042,
      "gc</w>": 6043,
      "oz</w>": 6044,
      "wishes</w>": 6045,
      "foreign</w>": 6046,
      "sung</w>": 6047,
      "learned</w>": 6048,
      "ene</w>": 6049,
      "ning": 6050,
      "michael": 6051,
      "illustration</w>": 6052,
      "legendary</w>": 6053,
      "wav": 6054,
      "bau": 6055,
      "ðŁļ¨</w>": 6056,
      "calend": 6057,
      "streets</w>": 6058,
      "âĨ": 6059,
      "monster</w>": 6060,
      "buck": 6061,
      "gr</w>": 6062,
      "school": 6063,
      "bath": 6064,
      "waste</w>": 6065,
      "neck": 6066,
      "hawa": 6067,
      "beach": 6068,
      "replac": 6069,
      "ject</w>": 6070,
      "oner</w>": 6071,
      "factory</w>": 6072,
      "count": 6073,
      "ðŁĵ¸</w>": 6074,
      "morgan</w>": 6075,
      "dering</w>": 6076,
      "sean</w>": 6077,
      "stephen</w>": 6078,
      "dep": 6079,
      "novel</w>": 6080,
      "videos</w>": 6081,
      "ical": 6082,
      "pressure</w>": 6083,
      "arsenal</w>": 6084,
      "expre": 6085,
      "irs</w>": 6086,
      "trending</w>": 6087,
      "ssa</w>": 6088,
      "flash": 6089,
      "resear": 6090,
      "through": 6091,
      "professor</w>": 6092,
      "sculp": 6093,
      "tos</w>": 6094,
      "gged</w>": 6095,
      "mma</w>": 6096,
      "bee": 6097,
      "ape": 6098,
      "hunter</w>": 6099,
      "ami": 6100,
      "hei": 6101,
      "plastic</w>": 6102,
      "bucks</w>": 6103,
      "universe</w>": 6104,
      "legen": 6105,
      "nigeria</w>": 6106,
      "pleased</w>": 6107,
      "ris": 6108,
      "thinks</w>": 6109,
      "autumn</w>": 6110,
      "ids</w>": 6111,
      "dis</w>": 6112,
      "anthony</w>": 6113,
      "ðŁı½</w>": 6114,
      "aked</w>": 6115,
      "glasses</w>": 6116,
      "finance</w>": 6117,
      "zer": 6118,
      "kas": 6119,
      "contract</w>": 6120,
      "numbers</w>": 6121,
      "shaw": 6122,
      "partnership</w>": 6123,
      "til": 6124,
      "launched</w>": 6125,
      "sal</w>": 6126,
      "victoria</w>": 6127,
      "theater</w>": 6128,
      "usual</w>": 6129,
      "names</w>": 6130,
      "period</w>": 6131,
      "eliza": 6132,
      "ith": 6133,
      "barcel": 6134,
      "rocks</w>": 6135,
      "bags</w>": 6136,
      "mate": 6137,
      "distribu": 6138,
      "jon</w>": 6139,
      "diffic": 6140,
      "alized</w>": 6141,
      "curren": 6142,
      "scored</w>": 6143,
      "bha": 6144,
      "dublin</w>": 6145,
      "rose": 6146,
      "inted</w>": 6147,
      "solid</w>": 6148,
      "behavi": 6149,
      "walker</w>": 6150,
      "simply</w>": 6151,
      "gardens</w>": 6152,
      "headed</w>": 6153,
      "ini": 6154,
      "ohio</w>": 6155,
      "weap": 6156,
      "fo</w>": 6157,
      "glen": 6158,
      "estate</w>": 6159,
      "random</w>": 6160,
      "thunder": 6161,
      "thru</w>": 6162,
      "kill": 6163,
      "jacket</w>": 6164,
      "iti</w>": 6165,
      "entertainment</w>": 6166,
      "thanksgiving</w>": 6167,
      "ental</w>": 6168,
      "encoura": 6169,
      "elo": 6170,
      "ather": 6171,
      "tank</w>": 6172,
      "highlights</w>": 6173,
      "fting</w>": 6174,
      "rule</w>": 6175,
      "models</w>": 6176,
      "border</w>": 6177,
      "bjp</w>": 6178,
      "husband</w>": 6179,
      "indone": 6180,
      "kenya</w>": 6181,
      "bears</w>": 6182,
      "alo</w>": 6183,
      "ninten": 6184,
      "pix": 6185,
      "stro</w>": 6186,
      "orders</w>": 6187,
      "salad</w>": 6188,
      "roads</w>": 6189,
      "nor</w>": 6190,
      "lation</w>": 6191,
      "sophi": 6192,
      "ðŁı¼": 6193,
      "pieces</w>": 6194,
      "bone</w>": 6195,
      "mins</w>": 6196,
      "includes</w>": 6197,
      "nutr": 6198,
      "phil</w>": 6199,
      "sent": 6200,
      "fundra": 6201,
      "gain</w>": 6202,
      "borough</w>": 6203,
      "nad": 6204,
      "monday": 6205,
      "activity</w>": 6206,
      "items</w>": 6207,
      "becoming</w>": 6208,
      "kenne": 6209,
      "detro": 6210,
      "cardi": 6211,
      "guests</w>": 6212,
      "ux</w>": 6213,
      "worldwide</w>": 6214,
      "severe</w>": 6215,
      "news": 6216,
      "thankful</w>": 6217,
      "fiction</w>": 6218,
      "vege": 6219,
      "mall</w>": 6220,
      "sian</w>": 6221,
      "eral</w>": 6222,
      "injury</w>": 6223,
      "lee": 6224,
      "menu</w>": 6225,
      "dancing</w>": 6226,
      "scotti": 6227,
      "example</w>": 6228,
      "(#</w>": 6229,
      "nai": 6230,
      "studios</w>": 6231,
      "bai": 6232,
      "ðŁĴĽ</w>": 6233,
      "jav": 6234,
      "diamond</w>": 6235,
      "vince</w>": 6236,
      "rick": 6237,
      "protection</w>": 6238,
      "lincol": 6239,
      "champs</w>": 6240,
      "approach</w>": 6241,
      "dar</w>": 6242,
      "mile</w>": 6243,
      "clouds</w>": 6244,
      "jeff": 6245,
      "infin": 6246,
      "lers</w>": 6247,
      "ples</w>": 6248,
      "peace": 6249,
      "gop</w>": 6250,
      "âĻ¡</w>": 6251,
      "techn": 6252,
      "stra</w>": 6253,
      "average</w>": 6254,
      "effort</w>": 6255,
      "introducing</w>": 6256,
      "diversity</w>": 6257,
      "australian</w>": 6258,
      "amp</w>": 6259,
      "boost</w>": 6260,
      "ske": 6261,
      "patient</w>": 6262,
      "appreciate</w>": 6263,
      "icians</w>": 6264,
      "pur</w>": 6265,
      "fell</w>": 6266,
      "woods</w>": 6267,
      "illustr": 6268,
      "ðŁĸ": 6269,
      "agency</w>": 6270,
      "actions</w>": 6271,
      "britain</w>": 6272,
      "underway</w>": 6273,
      "seattle</w>": 6274,
      "eland</w>": 6275,
      "ago": 6276,
      "fill</w>": 6277,
      "streaming</w>": 6278,
      "protest</w>": 6279,
      "challenges</w>": 6280,
      "kyo</w>": 6281,
      "etsy</w>": 6282,
      "cooking</w>": 6283,
      "expert</w>": 6284,
      "russ": 6285,
      "rainbow</w>": 6286,
      "commercial</w>": 6287,
      "spin": 6288,
      "beats</w>": 6289,
      "cry</w>": 6290,
      "valu": 6291,
      "eli</w>": 6292,
      "throw</w>": 6293,
      "grams</w>": 6294,
      "levels</w>": 6295,
      "michigan</w>": 6296,
      "cad": 6297,
      "adorable</w>": 6298,
      "constitu": 6299,
      "ws": 6300,
      "pub</w>": 6301,
      "midnight</w>": 6302,
      "that": 6303,
      "netfli": 6304,
      "brazil</w>": 6305,
      "diego</w>": 6306,
      "regular</w>": 6307,
      "joy": 6308,
      "âĤ¬</w>": 6309,
      "liqu": 6310,
      "eastern</w>": 6311,
      "kni": 6312,
      "flat</w>": 6313,
      "np</w>": 6314,
      "brown": 6315,
      "wer": 6316,
      "sey": 6317,
      "tters</w>": 6318,
      "acting</w>": 6319,
      "vanc": 6320,
      "cycling</w>": 6321,
      "programme</w>": 6322,
      "raw</w>": 6323,
      "complex</w>": 6324,
      "tattoo</w>": 6325,
      "throwbackthursday</w>": 6326,
      "sessions</w>": 6327,
      "rooms</w>": 6328,
      "sight</w>": 6329,
      "species</w>": 6330,
      "bomb</w>": 6331,
      "laugh</w>": 6332,
      "keeps</w>": 6333,
      "moon": 6334,
      "officers</w>": 6335,
      "conver": 6336,
      "tr</w>": 6337,
      "hash": 6338,
      "tack": 6339,
      "rious</w>": 6340,
      "adap": 6341,
      "aj</w>": 6342,
      "recogn": 6343,
      "expo</w>": 6344,
      "sugge": 6345,
      "confirmed</w>": 6346,
      "rolling</w>": 6347,
      "dressing</w>": 6348,
      "ict</w>": 6349,
      "friday": 6350,
      "phones</w>": 6351,
      "ridge</w>": 6352,
      "concept</w>": 6353,
      "roy</w>": 6354,
      "keys</w>": 6355,
      "effor": 6356,
      "cate": 6357,
      "kne": 6358,
      "even": 6359,
      "lay</w>": 6360,
      "communities</w>": 6361,
      "mod": 6362,
      "naz": 6363,
      "everywhere</w>": 6364,
      "alab": 6365,
      "bitcoin</w>": 6366,
      "banks</w>": 6367,
      "outdoor</w>": 6368,
      "federal</w>": 6369,
      "stores</w>": 6370,
      "hp</w>": 6371,
      "cal</w>": 6372,
      "mely</w>": 6373,
      "signific": 6374,
      "bear": 6375,
      "republic": 6376,
      "closer</w>": 6377,
      "allah</w>": 6378,
      "pick": 6379,
      "xd</w>": 6380,
      "palace</w>": 6381,
      "chill</w>": 6382,
      "bam": 6383,
      "erous</w>": 6384,
      "una</w>": 6385,
      "allen</w>": 6386,
      "outstanding</w>": 6387,
      "olympic</w>": 6388,
      "supply</w>": 6389,
      "figu": 6390,
      "vau": 6391,
      "lp</w>": 6392,
      "charlie</w>": 6393,
      "unes</w>": 6394,
      ">>></w>": 6395,
      "legends</w>": 6396,
      "icial</w>": 6397,
      "coast": 6398,
      "benefit</w>": 6399,
      "multi</w>": 6400,
      "fits</w>": 6401,
      "farmers</w>": 6402,
      "amount</w>": 6403,
      "sisters</w>": 6404,
      "harve": 6405,
      "honey</w>": 6406,
      "queen": 6407,
      "bers</w>": 6408,
      "plann": 6409,
      "âŃĲ": 6410,
      "mu</w>": 6411,
      "barcelona</w>": 6412,
      "alber": 6413,
      "status</w>": 6414,
      "remain</w>": 6415,
      "extra": 6416,
      "candy</w>": 6417,
      "vious</w>": 6418,
      "âľĮ": 6419,
      "ov": 6420,
      "warriors</w>": 6421,
      "--></w>": 6422,
      "jump</w>": 6423,
      "amar": 6424,
      "xmas</w>": 6425,
      "studies</w>": 6426,
      "iors</w>": 6427,
      "kor": 6428,
      "donate</w>": 6429,
      "prep": 6430,
      "fish": 6431,
      "ima</w>": 6432,
      "painted</w>": 6433,
      "admini": 6434,
      "cosplay</w>": 6435,
      "sports": 6436,
      "drops</w>": 6437,
      "fighter</w>": 6438,
      "evidence</w>": 6439,
      "ðŁĴª</w>": 6440,
      "lake": 6441,
      "rob</w>": 6442,
      "cinema</w>": 6443,
      "profile</w>": 6444,
      "Ã±": 6445,
      "stands</w>": 6446,
      "legacy</w>": 6447,
      "shape</w>": 6448,
      "roof</w>": 6449,
      "civil</w>": 6450,
      "ians</w>": 6451,
      "syl": 6452,
      "sham": 6453,
      "voted</w>": 6454,
      "retail</w>": 6455,
      "philli": 6456,
      "listed</w>": 6457,
      "duty</w>": 6458,
      "nb": 6459,
      "thes</w>": 6460,
      "fare</w>": 6461,
      "auction</w>": 6462,
      "fficial</w>": 6463,
      "storms</w>": 6464,
      "dp</w>": 6465,
      "loun": 6466,
      "shops</w>": 6467,
      "aly": 6468,
      "anime</w>": 6469,
      "multiple</w>": 6470,
      "ðŁĺįðŁĺį</w>": 6471,
      "psycho": 6472,
      "jean</w>": 6473,
      "apart": 6474,
      "candidate</w>": 6475,
      "ggy</w>": 6476,
      "conf</w>": 6477,
      "joseph</w>": 6478,
      "wick</w>": 6479,
      "meat</w>": 6480,
      "frame</w>": 6481,
      "cl</w>": 6482,
      "forgot</w>": 6483,
      "phy": 6484,
      "fing": 6485,
      "lied</w>": 6486,
      "rep</w>": 6487,
      "seed</w>": 6488,
      "fall": 6489,
      "ufc</w>": 6490,
      "nut</w>": 6491,
      "lind": 6492,
      "mode</w>": 6493,
      "fields</w>": 6494,
      "ence": 6495,
      "sley</w>": 6496,
      "ðŁ¤Ķ</w>": 6497,
      "chill": 6498,
      "followed</w>": 6499,
      "announces</w>": 6500,
      "corru": 6501,
      "trophy</w>": 6502,
      "themselves</w>": 6503,
      "acle</w>": 6504,
      "aldu": 6505,
      "kong</w>": 6506,
      "lon</w>": 6507,
      "sv": 6508,
      "broke</w>": 6509,
      "anderson</w>": 6510,
      "tai": 6511,
      "story": 6512,
      "temporary</w>": 6513,
      "activities</w>": 6514,
      "kati": 6515,
      "ariz": 6516,
      "crystal</w>": 6517,
      "spoke</w>": 6518,
      "extremely</w>": 6519,
      "trading</w>": 6520,
      "ðŁĴļ</w>": 6521,
      "Ã¼": 6522,
      "inch</w>": 6523,
      "edin": 6524,
      "outfit</w>": 6525,
      "equip": 6526,
      "madi": 6527,
      "formed</w>": 6528,
      "beef</w>": 6529,
      "pop": 6530,
      "tiger</w>": 6531,
      "thisday</w>": 6532,
      "tired</w>": 6533,
      "neighb": 6534,
      "retro": 6535,
      "isa</w>": 6536,
      "unt</w>": 6537,
      "tas": 6538,
      "kansas</w>": 6539,
      "dest": 6540,
      "seconds</w>": 6541,
      "tay": 6542,
      "hurric": 6543,
      "ou</w>": 6544,
      "galaxy</w>": 6545,
      "daddy</w>": 6546,
      "brow": 6547,
      "burger</w>": 6548,
      "enced</w>": 6549,
      "desk</w>": 6550,
      "accur": 6551,
      "secretary</w>": 6552,
      "elite</w>": 6553,
      "kab": 6554,
      "chin": 6555,
      "tourism</w>": 6556,
      "buddy</w>": 6557,
      "icide</w>": 6558,
      "dressed</w>": 6559,
      "ud": 6560,
      "vacation</w>": 6561,
      "cheers</w>": 6562,
      "comfor": 6563,
      "characters</w>": 6564,
      "jet</w>": 6565,
      "buying</w>": 6566,
      "lins</w>": 6567,
      "nap": 6568,
      "realestate</w>": 6569,
      "lie": 6570,
      "afc</w>": 6571,
      "iii</w>": 6572,
      "fame</w>": 6573,
      "nr": 6574,
      "bat</w>": 6575,
      "agent</w>": 6576,
      "makers</w>": 6577,
      "âĢ¼": 6578,
      "sector</w>": 6579,
      "opti": 6580,
      "leon": 6581,
      "diet</w>": 6582,
      "prayer</w>": 6583,
      "hip</w>": 6584,
      "mir</w>": 6585,
      "lex": 6586,
      "bry": 6587,
      "ana": 6588,
      "passing</w>": 6589,
      "wen": 6590,
      "recovery</w>": 6591,
      "aki</w>": 6592,
      "popul": 6593,
      "resort</w>": 6594,
      "maria</w>": 6595,
      "stuck</w>": 6596,
      "reads</w>": 6597,
      "tier</w>": 6598,
      "perfec": 6599,
      "netflix</w>": 6600,
      "poo": 6601,
      "champ</w>": 6602,
      "oc</w>": 6603,
      "reduce</w>": 6604,
      "wered</w>": 6605,
      "comments</w>": 6606,
      "claim</w>": 6607,
      "accident</w>": 6608,
      "sag": 6609,
      "hack": 6610,
      "salt</w>": 6611,
      "kinda</w>": 6612,
      "killer</w>": 6613,
      "ios</w>": 6614,
      "zy": 6615,
      "exchange</w>": 6616,
      "lecture</w>": 6617,
      "enger</w>": 6618,
      "icking</w>": 6619,
      "tau": 6620,
      "reveals</w>": 6621,
      "prison</w>": 6622,
      "zom": 6623,
      "ghan</w>": 6624,
      "ul</w>": 6625,
      "journal</w>": 6626,
      "iot</w>": 6627,
      "trin": 6628,
      "jona": 6629,
      "governor</w>": 6630,
      "cape</w>": 6631,
      "quarter</w>": 6632,
      "spective</w>": 6633,
      "impressive</w>": 6634,
      "babies</w>": 6635,
      "tx": 6636,
      "mill</w>": 6637,
      "oy": 6638,
      "harri": 6639,
      "joint</w>": 6640,
      "sue</w>": 6641,
      "collaboration</w>": 6642,
      "trend</w>": 6643,
      "revolution</w>": 6644,
      "renew": 6645,
      "alumni</w>": 6646,
      "gett": 6647,
      "shell</w>": 6648,
      "sunday": 6649,
      "entu": 6650,
      "nic</w>": 6651,
      "donaldtrump</w>": 6652,
      "blockchain</w>": 6653,
      "pacific</w>": 6654,
      "explains</w>": 6655,
      "spy</w>": 6656,
      "advoc": 6657,
      "paradi": 6658,
      "tof": 6659,
      "starring</w>": 6660,
      "pav": 6661,
      "feed": 6662,
      "brac": 6663,
      "smoke</w>": 6664,
      "hamp": 6665,
      "yam": 6666,
      "tokyo</w>": 6667,
      "simon</w>": 6668,
      "dh": 6669,
      "effici": 6670,
      "physical</w>": 6671,
      "nj</w>": 6672,
      "elli</w>": 6673,
      "slow": 6674,
      "graduate</w>": 6675,
      "americans</w>": 6676,
      "tify</w>": 6677,
      "fred</w>": 6678,
      "apore</w>": 6679,
      "finds</w>": 6680,
      "robin": 6681,
      "wet</w>": 6682,
      "notice</w>": 6683,
      "semi</w>": 6684,
      "unve": 6685,
      "kom": 6686,
      "pilot</w>": 6687,
      "screening</w>": 6688,
      "daily": 6689,
      "ðŁĴĹ</w>": 6690,
      "royal": 6691,
      "spa</w>": 6692,
      "votes</w>": 6693,
      "nag": 6694,
      "whate": 6695,
      "attending</w>": 6696,
      "experim": 6697,
      "addition</w>": 6698,
      "kate</w>": 6699,
      "stol</w>": 6700,
      "mali": 6701,
      "foot": 6702,
      "christ</w>": 6703,
      "chan</w>": 6704,
      "dee</w>": 6705,
      "licen": 6706,
      "global": 6707,
      "moore</w>": 6708,
      "tia</w>": 6709,
      "brigh": 6710,
      "mystery</w>": 6711,
      "yay</w>": 6712,
      "âĿ¤ï¸ıâĿ¤ï¸ı": 6713,
      "creati": 6714,
      "mechan": 6715,
      "clock</w>": 6716,
      "dic</w>": 6717,
      "âĢĶ": 6718,
      "pper": 6719,
      "alph": 6720,
      "throughout</w>": 6721,
      "allow</w>": 6722,
      "resources</w>": 6723,
      "selection</w>": 6724,
      "hamil": 6725,
      "bbq</w>": 6726,
      "aaaa": 6727,
      "virginia</w>": 6728,
      "disney": 6729,
      "eng</w>": 6730,
      "sored</w>": 6731,
      "drinks</w>": 6732,
      "fancy</w>": 6733,
      "consider</w>": 6734,
      "enda</w>": 6735,
      "jane</w>": 6736,
      "handmade</w>": 6737,
      "dul": 6738,
      "ontari": 6739,
      "ius</w>": 6740,
      "sville</w>": 6741,
      "colorado</w>": 6742,
      "whatever</w>": 6743,
      "wheel</w>": 6744,
      "promise</w>": 6745,
      "never": 6746,
      "designs</w>": 6747,
      "ably</w>": 6748,
      "sexual</w>": 6749,
      "vancou": 6750,
      "ati</w>": 6751,
      "convention</w>": 6752,
      "cultural</w>": 6753,
      "singapore</w>": 6754,
      "promo</w>": 6755,
      "loaded</w>": 6756,
      "glasgo": 6757,
      "ppl</w>": 6758,
      "noo": 6759,
      "kee</w>": 6760,
      "stem</w>": 6761,
      "mention</w>": 6762,
      "ido": 6763,
      "cruise</w>": 6764,
      "riding</w>": 6765,
      "becomes</w>": 6766,
      "bey</w>": 6767,
      "âļ½ï¸ı</w>": 6768,
      "twin</w>": 6769,
      "dedicated</w>": 6770,
      "nash": 6771,
      "desi": 6772,
      "workout</w>": 6773,
      "jenni": 6774,
      "iv": 6775,
      "groups</w>": 6776,
      "relax": 6777,
      "phoeni": 6778,
      "lift</w>": 6779,
      "mixed</w>": 6780,
      "mck": 6781,
      "pc": 6782,
      "must": 6783,
      "metro</w>": 6784,
      "cies</w>": 6785,
      "yar": 6786,
      "aim": 6787,
      "anger</w>": 6788,
      "ie": 6789,
      "recy": 6790,
      "married</w>": 6791,
      "dropped</w>": 6792,
      "engag": 6793,
      "lest</w>": 6794,
      "ambassador</w>": 6795,
      "oph": 6796,
      "des": 6797,
      "wick": 6798,
      "assistant</w>": 6799,
      "natur": 6800,
      "fail</w>": 6801,
      "ltd</w>": 6802,
      "short": 6803,
      "kap": 6804,
      "shaw</w>": 6805,
      "bigger</w>": 6806,
      "remains</w>": 6807,
      "critical</w>": 6808,
      "survey</w>": 6809,
      "coverage</w>": 6810,
      "erson</w>": 6811,
      "wind": 6812,
      "nb</w>": 6813,
      "billy</w>": 6814,
      "letes</w>": 6815,
      "acts</w>": 6816,
      "jimmy</w>": 6817,
      "atlan": 6818,
      "aland</w>": 6819,
      "tc": 6820,
      "importance</w>": 6821,
      "damage</w>": 6822,
      "fg</w>": 6823,
      "storage</w>": 6824,
      "twt</w>": 6825,
      "bond</w>": 6826,
      "balance</w>": 6827,
      "crying</w>": 6828,
      "puppy</w>": 6829,
      "vote": 6830,
      "push</w>": 6831,
      "ðŁĴľ": 6832,
      "poly": 6833,
      "mel</w>": 6834,
      "london": 6835,
      "terrori": 6836,
      "effective</w>": 6837,
      "corporate</w>": 6838,
      "atlanta</w>": 6839,
      "jaco": 6840,
      "nasa</w>": 6841,
      "greek</w>": 6842,
      "senate</w>": 6843,
      "ish": 6844,
      "eva</w>": 6845,
      "intelligence</w>": 6846,
      "efforts</w>": 6847,
      "alco": 6848,
      "kun": 6849,
      "hall": 6850,
      "diag": 6851,
      "claims</w>": 6852,
      "first": 6853,
      "hb": 6854,
      "bae</w>": 6855,
      "vul": 6856,
      "pull</w>": 6857,
      "Â°</w>": 6858,
      "separ": 6859,
      "speed": 6860,
      "victi": 6861,
      "onthisday</w>": 6862,
      "audience</w>": 6863,
      "rates</w>": 6864,
      "teach</w>": 6865,
      "filming</w>": 6866,
      "bush</w>": 6867,
      "song": 6868,
      "yum": 6869,
      "brun": 6870,
      "raine</w>": 6871,
      "awa</w>": 6872,
      "parks</w>": 6873,
      "ðĿ": 6874,
      "rabb": 6875,
      "rach": 6876,
      "raid</w>": 6877,
      "reached</w>": 6878,
      "rail</w>": 6879,
      "moves</w>": 6880,
      "selected</w>": 6881,
      "fri</w>": 6882,
      "raising</w>": 6883,
      "omy</w>": 6884,
      "stones</w>": 6885,
      "suk</w>": 6886,
      "francisco</w>": 6887,
      "cases</w>": 6888,
      "capit": 6889,
      "confu": 6890,
      "wtf</w>": 6891,
      "poke": 6892,
      "equipment</w>": 6893,
      "greg": 6894,
      "essential</w>": 6895,
      "offering</w>": 6896,
      "nex": 6897,
      "pies</w>": 6898,
      "bec": 6899,
      "creation</w>": 6900,
      "chairman</w>": 6901,
      "crown</w>": 6902,
      "wal</w>": 6903,
      "johnny</w>": 6904,
      "shift</w>": 6905,
      "neck</w>": 6906,
      "bang</w>": 6907,
      "bird": 6908,
      "ðŁĺı</w>": 6909,
      "duck</w>": 6910,
      "reserve</w>": 6911,
      "depu": 6912,
      "masters</w>": 6913,
      "overall</w>": 6914,
      "notic": 6915,
      "juice</w>": 6916,
      "sneak</w>": 6917,
      "cheer</w>": 6918,
      "classes</w>": 6919,
      "eagles</w>": 6920,
      "nca": 6921,
      "carpet</w>": 6922,
      "civil": 6923,
      "coaches</w>": 6924,
      "harris</w>": 6925,
      "ups</w>": 6926,
      "balls</w>": 6927,
      "decor</w>": 6928,
      "martin": 6929,
      "ros</w>": 6930,
      "vice</w>": 6931,
      "announcement</w>": 6932,
      "whose</w>": 6933,
      "tigers</w>": 6934,
      "stered</w>": 6935,
      "cts</w>": 6936,
      "dram": 6937,
      "steel": 6938,
      "young": 6939,
      "install": 6940,
      "suppo": 6941,
      "recording</w>": 6942,
      "deck</w>": 6943,
      "seats</w>": 6944,
      "lder</w>": 6945,
      "angle</w>": 6946,
      "bot</w>": 6947,
      "styles</w>": 6948,
      "elections</w>": 6949,
      "fortun": 6950,
      "nab": 6951,
      "butter</w>": 6952,
      "arian</w>": 6953,
      "kash": 6954,
      "inner</w>": 6955,
      "oured</w>": 6956,
      "beast</w>": 6957,
      "wei": 6958,
      "iconic</w>": 6959,
      "experts</w>": 6960,
      "necess": 6961,
      "beng": 6962,
      "james": 6963,
      "lia</w>": 6964,
      "greece</w>": 6965,
      "ðŁĵ·": 6966,
      "ðŁĺģ": 6967,
      "goodbye</w>": 6968,
      "mitch": 6969,
      "twice</w>": 6970,
      "mumbai</w>": 6971,
      "steam</w>": 6972,
      "rush</w>": 6973,
      "medal</w>": 6974,
      "nett</w>": 6975,
      "fashion": 6976,
      "tar</w>": 6977,
      "rs": 6978,
      "saving</w>": 6979,
      "ricul": 6980,
      "lm": 6981,
      "sleeping</w>": 6982,
      "brooklyn</w>": 6983,
      "miss": 6984,
      "sending</w>": 6985,
      "discovered</w>": 6986,
      "sphere</w>": 6987,
      "oftheday</w>": 6988,
      "kicks</w>": 6989,
      "missions</w>": 6990,
      "wright</w>": 6991,
      "ern": 6992,
      "ghtly</w>": 6993,
      "ious</w>": 6994,
      "melbourne</w>": 6995,
      "startu": 6996,
      "moved</w>": 6997,
      "carry</w>": 6998,
      "dak": 6999,
      "agues</w>": 7000,
      "belgi": 7001,
      "ema": 7002,
      "wayne</w>": 7003,
      "dot</w>": 7004,
      "erie</w>": 7005,
      "pel</w>": 7006,
      "itunes</w>": 7007,
      "matthew</w>": 7008,
      "nobody</w>": 7009,
      "estab": 7010,
      "calm</w>": 7011,
      "winds</w>": 7012,
      "luc": 7013,
      "prepare</w>": 7014,
      "trends</w>": 7015,
      "exercise</w>": 7016,
      "advant": 7017,
      "ðŁĴ¯</w>": 7018,
      "athletics</w>": 7019,
      "apps</w>": 7020,
      "ctions</w>": 7021,
      "advance</w>": 7022,
      "launches</w>": 7023,
      "little": 7024,
      "realdonaldtrump</w>": 7025,
      "elizabeth</w>": 7026,
      "carolina</w>": 7027,
      "hub</w>": 7028,
      "hidden</w>": 7029,
      "nw</w>": 7030,
      "user</w>": 7031,
      "poll</w>": 7032,
      "greater</w>": 7033,
      "most": 7034,
      "fed</w>": 7035,
      "pat</w>": 7036,
      "lifestyle</w>": 7037,
      "sati": 7038,
      "scores</w>": 7039,
      "marriage</w>": 7040,
      "lr</w>": 7041,
      "avenue</w>": 7042,
      "deserve</w>": 7043,
      "rif": 7044,
      "ðŁĹ": 7045,
      "watch": 7046,
      "championships</w>": 7047,
      "gray</w>": 7048,
      "enni": 7049,
      "cotton</w>": 7050,
      "gom": 7051,
      "where": 7052,
      "package</w>": 7053,
      "sum": 7054,
      "absolu": 7055,
      "newly</w>": 7056,
      "foods</w>": 7057,
      "tyler</w>": 7058,
      "assembly</w>": 7059,
      "muslim</w>": 7060,
      "bank": 7061,
      "rememb": 7062,
      "options</w>": 7063,
      "producer</w>": 7064,
      "lando</w>": 7065,
      "funds</w>": 7066,
      "upper</w>": 7067,
      "shadow</w>": 7068,
      "progre": 7069,
      "cop</w>": 7070,
      "inge</w>": 7071,
      "legs</w>": 7072,
      "detroit</w>": 7073,
      "hillary</w>": 7074,
      "jose</w>": 7075,
      "giants</w>": 7076,
      "soup</w>": 7077,
      "sustainable</w>": 7078,
      "tus</w>": 7079,
      "clothes</w>": 7080,
      "rocking</w>": 7081,
      "nz</w>": 7082,
      "minne": 7083,
      "materi": 7084,
      "bruce</w>": 7085,
      "eart": 7086,
      "casting</w>": 7087,
      "independent</w>": 7088,
      "thousands</w>": 7089,
      "tah</w>": 7090,
      "decl": 7091,
      "veterans</w>": 7092,
      "lions</w>": 7093,
      "wrap</w>": 7094,
      "âĢ¦": 7095,
      "dess": 7096,
      "bling</w>": 7097,
      "stine</w>": 7098,
      "eggs</w>": 7099,
      "oon</w>": 7100,
      "closing</w>": 7101,
      "zay": 7102,
      "att</w>": 7103,
      "bacon</w>": 7104,
      "fail": 7105,
      "arizona</w>": 7106,
      "depre": 7107,
      "ghost</w>": 7108,
      "newsp": 7109,
      "wers</w>": 7110,
      "vip</w>": 7111,
      "liked</w>": 7112,
      "ident": 7113,
      "volunteer</w>": 7114,
      "adult</w>": 7115,
      "pupp": 7116,
      "circle</w>": 7117,
      "material</w>": 7118,
      "degree</w>": 7119,
      "grown</w>": 7120,
      "boom</w>": 7121,
      "calendar</w>": 7122,
      "sur</w>": 7123,
      "viewing</w>": 7124,
      "athletes</w>": 7125,
      "chand": 7126,
      "rell</w>": 7127,
      "asian</w>": 7128,
      "entr": 7129,
      "volley": 7130,
      "victims</w>": 7131,
      "body": 7132,
      "mama</w>": 7133,
      "transfer</w>": 7134,
      "geek</w>": 7135,
      "indic": 7136,
      "saved</w>": 7137,
      "mai": 7138,
      "gent</w>": 7139,
      "its": 7140,
      "lounge</w>": 7141,
      "kol": 7142,
      "theory</w>": 7143,
      "situation</w>": 7144,
      "islands</w>": 7145,
      "arth": 7146,
      "zoo</w>": 7147,
      "flood</w>": 7148,
      "viously</w>": 7149,
      "showed</w>": 7150,
      "parliament</w>": 7151,
      "chev": 7152,
      "eline</w>": 7153,
      "attrac": 7154,
      "abad</w>": 7155,
      "tail": 7156,
      "hrs</w>": 7157,
      "lus</w>": 7158,
      "portu": 7159,
      "gory</w>": 7160,
      "provides</w>": 7161,
      "toys</w>": 7162,
      "death": 7163,
      "infe": 7164,
      "ance": 7165,
      "gle": 7166,
      "liam</w>": 7167,
      "lover</w>": 7168,
      "hud": 7169,
      "dvd</w>": 7170,
      "revealed</w>": 7171,
      "gw": 7172,
      "rement</w>": 7173,
      "cathe": 7174,
      "lying</w>": 7175,
      "radio": 7176,
      "derby</w>": 7177,
      "stors</w>": 7178,
      "chemi": 7179,
      "hospit": 7180,
      "âľ¨": 7181,
      "':</w>": 7182,
      "ilove": 7183,
      "lemon</w>": 7184,
      "republic</w>": 7185,
      "sni": 7186,
      "ness": 7187,
      "door": 7188,
      "reaction</w>": 7189,
      "pregn": 7190,
      "flav": 7191,
      "scholar": 7192,
      "spotify</w>": 7193,
      "isation</w>": 7194,
      "visual</w>": 7195,
      "aware</w>": 7196,
      "sponsored</w>": 7197,
      "joke</w>": 7198,
      "lessons</w>": 7199,
      "legis": 7200,
      "lock": 7201,
      "simil": 7202,
      "ðŁĺĭ</w>": 7203,
      "kind": 7204,
      "lay": 7205,
      "mah": 7206,
      "hoping</w>": 7207,
      "vancouver</w>": 7208,
      "aser</w>": 7209,
      "cleaning</w>": 7210,
      "gala</w>": 7211,
      "threat</w>": 7212,
      "lap": 7213,
      "ache</w>": 7214,
      "romance</w>": 7215,
      "expen": 7216,
      "repost</w>": 7217,
      "zam": 7218,
      "epi": 7219,
      "mirror</w>": 7220,
      "oak</w>": 7221,
      "adul": 7222,
      "batman</w>": 7223,
      "slu": 7224,
      "lc</w>": 7225,
      "viewed</w>": 7226,
      "reviews</w>": 7227,
      "dates</w>": 7228,
      "indonesia</w>": 7229,
      "activi": 7230,
      "offen": 7231,
      "leaf</w>": 7232,
      "isi": 7233,
      "agricul": 7234,
      "costume</w>": 7235,
      "sites</w>": 7236,
      "spiritu": 7237,
      "appearance</w>": 7238,
      "iry</w>": 7239,
      "stair": 7240,
      "application</w>": 7241,
      "spectac": 7242,
      "icity</w>": 7243,
      "skies</w>": 7244,
      "handle</w>": 7245,
      "punk</w>": 7246,
      "paradise</w>": 7247,
      "tn</w>": 7248,
      "deal": 7249,
      "providing</w>": 7250,
      "doc</w>": 7251,
      "receiving</w>": 7252,
      "brew</w>": 7253,
      "microsoft</w>": 7254,
      "Ã¶": 7255,
      "ferr": 7256,
      "metro": 7257,
      "thail": 7258,
      "yum</w>": 7259,
      "carter</w>": 7260,
      "Ã¡": 7261,
      "gentle": 7262,
      "breaks</w>": 7263,
      "cooper": 7264,
      "showcase</w>": 7265,
      "cutting</w>": 7266,
      "egypt</w>": 7267,
      "baby": 7268,
      "seminar</w>": 7269,
      "glori": 7270,
      "sson</w>": 7271,
      "fave</w>": 7272,
      "rehear": 7273,
      "lotte</w>": 7274,
      "lady": 7275,
      "alas": 7276,
      "prep</w>": 7277,
      "delivered</w>": 7278,
      "nuclear</w>": 7279,
      "iro</w>": 7280,
      "engagement</w>": 7281,
      "atta": 7282,
      "conven": 7283,
      "zan": 7284,
      "glory</w>": 7285,
      "holds</w>": 7286,
      "businesses</w>": 7287,
      "strange</w>": 7288,
      "sche</w>": 7289,
      "itself</w>": 7290,
      "grad</w>": 7291,
      "markets</w>": 7292,
      "falling</w>": 7293,
      "stats</w>": 7294,
      "geon</w>": 7295,
      "budd": 7296,
      "lis": 7297,
      "sheet</w>": 7298,
      "thisi": 7299,
      "colo": 7300,
      "desert</w>": 7301,
      "registration</w>": 7302,
      "ign": 7303,
      "explain</w>": 7304,
      "interior</w>": 7305,
      "laws</w>": 7306,
      "writers</w>": 7307,
      "springs</w>": 7308,
      "kr": 7309,
      "fried</w>": 7310,
      "bloom": 7311,
      "infra": 7312,
      "ao": 7313,
      "cred": 7314,
      "past": 7315,
      "lineup</w>": 7316,
      "boo</w>": 7317,
      "brea": 7318,
      "boots</w>": 7319,
      "celebrity</w>": 7320,
      "attacks</w>": 7321,
      "brook</w>": 7322,
      "eves</w>": 7323,
      "excu": 7324,
      "cherry</w>": 7325,
      "oop</w>": 7326,
      "fascin": 7327,
      "boyfriend</w>": 7328,
      "seas": 7329,
      "nine</w>": 7330,
      "effects</w>": 7331,
      "powered</w>": 7332,
      "kha": 7333,
      "ðŁĺĢ</w>": 7334,
      "shout": 7335,
      "condition</w>": 7336,
      "ij": 7337,
      "hero": 7338,
      "enterpri": 7339,
      "winter": 7340,
      "applications</w>": 7341,
      "shoe</w>": 7342,
      "gel": 7343,
      "battle": 7344,
      "programs</w>": 7345,
      "wart</w>": 7346,
      "ðŁĴ¥</w>": 7347,
      "rap</w>": 7348,
      "hol</w>": 7349,
      "dangerous</w>": 7350,
      "dia": 7351,
      "counter</w>": 7352,
      "rics</w>": 7353,
      "ior": 7354,
      "knight</w>": 7355,
      "coat</w>": 7356,
      "emotional</w>": 7357,
      "atures</w>": 7358,
      "das</w>": 7359,
      "wheel": 7360,
      "forecast</w>": 7361,
      "transport</w>": 7362,
      "glasgow</w>": 7363,
      "kingdom</w>": 7364,
      "preparing</w>": 7365,
      "immedi": 7366,
      "ffin</w>": 7367,
      "awarded</w>": 7368,
      "printing</w>": 7369,
      "roman</w>": 7370,
      "fighters</w>": 7371,
      "anymore</w>": 7372,
      "belt</w>": 7373,
      "pine</w>": 7374,
      "wine": 7375,
      "xi</w>": 7376,
      "employees</w>": 7377,
      "logies</w>": 7378,
      "alled</w>": 7379,
      "demo</w>": 7380,
      "birthday": 7381,
      "angeles</w>": 7382,
      "log</w>": 7383,
      "drivers</w>": 7384,
      "necklace</w>": 7385,
      "kath": 7386,
      "sit": 7387,
      "athlete</w>": 7388,
      "efs</w>": 7389,
      "sburg</w>": 7390,
      "purpose</w>": 7391,
      "resistance</w>": 7392,
      "releases</w>": 7393,
      "tis</w>": 7394,
      "various</w>": 7395,
      "deliver</w>": 7396,
      "chal": 7397,
      "sanc": 7398,
      "oppo": 7399,
      "craw": 7400,
      "neuro": 7401,
      "dra</w>": 7402,
      "supporters</w>": 7403,
      "snap</w>": 7404,
      "difficult</w>": 7405,
      "swear</w>": 7406,
      "logist</w>": 7407,
      "path": 7408,
      "attempt</w>": 7409,
      "à¥": 7410,
      "swimming</w>": 7411,
      "steve": 7412,
      "hurt</w>": 7413,
      "included</w>": 7414,
      "bap": 7415,
      "ware": 7416,
      "ðŁĴĭ</w>": 7417,
      "enders</w>": 7418,
      "jake</w>": 7419,
      "leeds</w>": 7420,
      "climb": 7421,
      "lb</w>": 7422,
      "imple": 7423,
      "lisa</w>": 7424,
      "clothing</w>": 7425,
      "ðŁĺİ": 7426,
      "dt</w>": 7427,
      "compla": 7428,
      "swing</w>": 7429,
      "straw": 7430,
      "vals</w>": 7431,
      "kle</w>": 7432,
      "users</w>": 7433,
      "storm": 7434,
      "cuts</w>": 7435,
      "ontario</w>": 7436,
      "pan</w>": 7437,
      "handsome</w>": 7438,
      "iow": 7439,
      "argu": 7440,
      "checking</w>": 7441,
      "scottish</w>": 7442,
      "Ķï¸ı</w>": 7443,
      "sier</w>": 7444,
      "emma</w>": 7445,
      "pod</w>": 7446,
      "pattern</w>": 7447,
      "desh</w>": 7448,
      "enh": 7449,
      "edward</w>": 7450,
      "ting": 7451,
      "kh</w>": 7452,
      "half": 7453,
      "lincoln</w>": 7454,
      "mother": 7455,
      "alleg": 7456,
      "rc</w>": 7457,
      "volleyball</w>": 7458,
      "dn</w>": 7459,
      "gay": 7460,
      "ally": 7461,
      "leton</w>": 7462,
      "grove</w>": 7463,
      "loud</w>": 7464,
      "advanced</w>": 7465,
      "respec": 7466,
      "client</w>": 7467,
      "supreme</w>": 7468,
      "thailand</w>": 7469,
      "how": 7470,
      "gig</w>": 7471,
      "toi": 7472,
      "dot": 7473,
      "dollar</w>": 7474,
      "ðŁĳĩ</w>": 7475,
      "pit</w>": 7476,
      "rb</w>": 7477,
      "hn</w>": 7478,
      "produced</w>": 7479,
      "ggers</w>": 7480,
      "âĨĴ</w>": 7481,
      "mlb</w>": 7482,
      "canvas</w>": 7483,
      "fineart": 7484,
      "usd</w>": 7485,
      "inthe": 7486,
      "pson</w>": 7487,
      "actual</w>": 7488,
      "sl</w>": 7489,
      "tb</w>": 7490,
      "ipad</w>": 7491,
      "ensure</w>": 7492,
      "umb": 7493,
      "wd</w>": 7494,
      "ska</w>": 7495,
      "mars</w>": 7496,
      "kend": 7497,
      "feli": 7498,
      "thing": 7499,
      "countdown</w>": 7500,
      "absolute</w>": 7501,
      "rout": 7502,
      "dral</w>": 7503,
      "py</w>": 7504,
      "injured</w>": 7505,
      "mint</w>": 7506,
      "hunting</w>": 7507,
      "mmer</w>": 7508,
      "sage</w>": 7509,
      "ligh": 7510,
      "acity</w>": 7511,
      "expan": 7512,
      "murray</w>": 7513,
      "aro": 7514,
      "secure</w>": 7515,
      "fourth</w>": 7516,
      "eagle</w>": 7517,
      "relief</w>": 7518,
      "stakes</w>": 7519,
      "industrial</w>": 7520,
      "clark</w>": 7521,
      "understanding</w>": 7522,
      "seem</w>": 7523,
      "plenty</w>": 7524,
      "silver": 7525,
      "clau": 7526,
      "threat": 7527,
      "sail": 7528,
      "produce</w>": 7529,
      "abstr": 7530,
      "isis</w>": 7531,
      "br</w>": 7532,
      "engers</w>": 7533,
      "worry</w>": 7534,
      "bieber</w>": 7535,
      "sj": 7536,
      "justin": 7537,
      "realize</w>": 7538,
      "kyle</w>": 7539,
      "espn</w>": 7540,
      "filter</w>": 7541,
      "sch</w>": 7542,
      "types</w>": 7543,
      "gamedev</w>": 7544,
      "ding": 7545,
      "twitter": 7546,
      "soldiers</w>": 7547,
      "pom": 7548,
      "carbon</w>": 7549,
      "yards</w>": 7550,
      "childhood</w>": 7551,
      "ried</w>": 7552,
      "kel</w>": 7553,
      "eleph": 7554,
      "tons</w>": 7555,
      "keynote</w>": 7556,
      "quiet</w>": 7557,
      "wire": 7558,
      "posting</w>": 7559,
      "issa</w>": 7560,
      "representing</w>": 7561,
      "backs</w>": 7562,
      "alexander</w>": 7563,
      "celebrates</w>": 7564,
      "taining</w>": 7565,
      "||</w>": 7566,
      "chor": 7567,
      "escape</w>": 7568,
      "peek</w>": 7569,
      "tives</w>": 7570,
      "field": 7571,
      "ssie</w>": 7572,
      "impac": 7573,
      "sponsor</w>": 7574,
      "rc": 7575,
      "wedd": 7576,
      "cannab": 7577,
      "sides</w>": 7578,
      "tracks</w>": 7579,
      "compar": 7580,
      "contrac": 7581,
      "technical</w>": 7582,
      "bible</w>": 7583,
      "exploring</w>": 7584,
      "share": 7585,
      "trav": 7586,
      "nate</w>": 7587,
      "illo</w>": 7588,
      "scru": 7589,
      "mingham</w>": 7590,
      "guns</w>": 7591,
      "ofthe": 7592,
      "shame</w>": 7593,
      "sees</w>": 7594,
      "catho": 7595,
      "access": 7596,
      "cel</w>": 7597,
      "reported</w>": 7598,
      "Â»</w>": 7599,
      "mario</w>": 7600,
      "pad</w>": 7601,
      "hopefully</w>": 7602,
      "ouse</w>": 7603,
      "yon</w>": 7604,
      "disappo": 7605,
      "olo</w>": 7606,
      "pitt": 7607,
      "pac</w>": 7608,
      "gap</w>": 7609,
      "crush</w>": 7610,
      "sg</w>": 7611,
      "kle": 7612,
      "gem</w>": 7613,
      "empire</w>": 7614,
      "dirty</w>": 7615,
      "ais": 7616,
      "aviation</w>": 7617,
      "zealand</w>": 7618,
      "facing</w>": 7619,
      "highway</w>": 7620,
      "danny</w>": 7621,
      "spider</w>": 7622,
      "otta": 7623,
      "ðŁĺĦ</w>": 7624,
      "wy</w>": 7625,
      "colours</w>": 7626,
      "infl": 7627,
      "costs</w>": 7628,
      "olympics</w>": 7629,
      "aus</w>": 7630,
      "hm</w>": 7631,
      "howard</w>": 7632,
      "passes</w>": 7633,
      "lauren</w>": 7634,
      "mush": 7635,
      "opin": 7636,
      "rho": 7637,
      "discount</w>": 7638,
      "operation</w>": 7639,
      "emily</w>": 7640,
      "mmm</w>": 7641,
      "chamber</w>": 7642,
      "dil": 7643,
      "toyo": 7644,
      "ship": 7645,
      "samu": 7646,
      "pictured</w>": 7647,
      "unic": 7648,
      "pol</w>": 7649,
      "keeper</w>": 7650,
      "cartoon</w>": 7651,
      "sten": 7652,
      "ignor": 7653,
      "nations</w>": 7654,
      "nl</w>": 7655,
      "tasting</w>": 7656,
      "detail</w>": 7657,
      "officials</w>": 7658,
      "motor</w>": 7659,
      "francis</w>": 7660,
      "editor</w>": 7661,
      "ðŁĳĩ": 7662,
      "pets</w>": 7663,
      "rangers</w>": 7664,
      "tg": 7665,
      "rn</w>": 7666,
      "wri": 7667,
      "nichol": 7668,
      "ise": 7669,
      "spots</w>": 7670,
      "anie</w>": 7671,
      "check": 7672,
      "triple</w>": 7673,
      "kumar</w>": 7674,
      "speakers</w>": 7675,
      "icing</w>": 7676,
      "prepared</w>": 7677,
      "abuse</w>": 7678,
      "friendship</w>": 7679,
      "month": 7680,
      "swim</w>": 7681,
      "aire</w>": 7682,
      "scent</w>": 7683,
      "hamilton</w>": 7684,
      "indian": 7685,
      "jes": 7686,
      "yummy</w>": 7687,
      "tears</w>": 7688,
      "dawn</w>": 7689,
      "ized</w>": 7690,
      "worlds</w>": 7691,
      "ðŁķ": 7692,
      "billi": 7693,
      "stone": 7694,
      "nhs</w>": 7695,
      "basic</w>": 7696,
      "por</w>": 7697,
      "stle</w>": 7698,
      "iron": 7699,
      "older</w>": 7700,
      "clevel": 7701,
      "eing</w>": 7702,
      "ðŁĺįðŁĺįðŁĺį</w>": 7703,
      "prints</w>": 7704,
      "firm</w>": 7705,
      "aircraft</w>": 7706,
      "finest</w>": 7707,
      "develop</w>": 7708,
      "aaron</w>": 7709,
      "tz": 7710,
      "graham</w>": 7711,
      "owners</w>": 7712,
      "foli": 7713,
      "lesson</w>": 7714,
      "ques</w>": 7715,
      "babe</w>": 7716,
      "craft": 7717,
      "phen": 7718,
      "jun</w>": 7719,
      "birmingham</w>": 7720,
      "vine</w>": 7721,
      "ller</w>": 7722,
      "ian": 7723,
      "fineartamerica</w>": 7724,
      "evolu": 7725,
      "stab": 7726,
      "imper": 7727,
      "ward": 7728,
      "comic": 7729,
      "wiz": 7730,
      "invited</w>": 7731,
      "duke</w>": 7732,
      "match": 7733,
      "ports</w>": 7734,
      "roger</w>": 7735,
      "diagno": 7736,
      "kept</w>": 7737,
      "test": 7738,
      "visu": 7739,
      "rhy": 7740,
      "soc</w>": 7741,
      "tox": 7742,
      "baker</w>": 7743,
      "surface</w>": 7744,
      "covers</w>": 7745,
      "mans</w>": 7746,
      "bits</w>": 7747,
      "xbox</w>": 7748,
      "ffle</w>": 7749,
      "nan</w>": 7750,
      "gard": 7751,
      "hart</w>": 7752,
      "waters</w>": 7753,
      "villa</w>": 7754,
      "retro</w>": 7755,
      "lightning</w>": 7756,
      "catholic</w>": 7757,
      "democracy</w>": 7758,
      "neighbor": 7759,
      "penn": 7760,
      "cran": 7761,
      "jonathan</w>": 7762,
      "laura</w>": 7763,
      "vibes</w>": 7764,
      "sub</w>": 7765,
      "coaching</w>": 7766,
      "clearly</w>": 7767,
      "ukraine</w>": 7768,
      "brave</w>": 7769,
      "commitment</w>": 7770,
      "tall</w>": 7771,
      "mart</w>": 7772,
      "rap": 7773,
      "modi</w>": 7774,
      "scott": 7775,
      "bros</w>": 7776,
      "shower</w>": 7777,
      "ðŁı¾</w>": 7778,
      "âĺºï¸ı</w>": 7779,
      "cousin</w>": 7780,
      "approach": 7781,
      "bre</w>": 7782,
      "compos": 7783,
      "hilari": 7784,
      "philly</w>": 7785,
      "gad": 7786,
      "quickly</w>": 7787,
      "rian</w>": 7788,
      "tm</w>": 7789,
      "virtual</w>": 7790,
      "houses</w>": 7791,
      "kt</w>": 7792,
      "phoenix</w>": 7793,
      "wire</w>": 7794,
      "ffy</w>": 7795,
      "bunch</w>": 7796,
      "ancing</w>": 7797,
      "tale</w>": 7798,
      "snapchat</w>": 7799,
      "starter</w>": 7800,
      "ht</w>": 7801,
      "kicking</w>": 7802,
      "apart</w>": 7803,
      "thy": 7804,
      ")!</w>": 7805,
      "blogger</w>": 7806,
      "itz</w>": 7807,
      "comfort</w>": 7808,
      "angels</w>": 7809,
      "wash</w>": 7810,
      "\":</w>": 7811,
      "argent": 7812,
      "request</w>": 7813,
      "honest": 7814,
      "mighty</w>": 7815,
      "bobby</w>": 7816,
      "kg</w>": 7817,
      "rol</w>": 7818,
      "thouse</w>": 7819,
      "expo": 7820,
      "hc</w>": 7821,
      "tables</w>": 7822,
      "magical</w>": 7823,
      "posts</w>": 7824,
      "dem</w>": 7825,
      "nw": 7826,
      "orlando</w>": 7827,
      "aber": 7828,
      "***</w>": 7829,
      "ðŁĺľ</w>": 7830,
      "environmental</w>": 7831,
      "transformation</w>": 7832,
      "mile": 7833,
      "wic": 7834,
      "hiring</w>": 7835,
      "maine</w>": 7836,
      "boar": 7837,
      "rying</w>": 7838,
      "tis": 7839,
      "niture</w>": 7840,
      "tweeted</w>": 7841,
      "antonio</w>": 7842,
      "opinion</w>": 7843,
      "finale</w>": 7844,
      "diy</w>": 7845,
      "fis": 7846,
      "thin</w>": 7847,
      "trouble</w>": 7848,
      "lego</w>": 7849,
      "files</w>": 7850,
      "quart": 7851,
      "spa": 7852,
      "currency</w>": 7853,
      "climate": 7854,
      "fanart</w>": 7855,
      "railway</w>": 7856,
      "space": 7857,
      "bands</w>": 7858,
      "daniel": 7859,
      "motion</w>": 7860,
      "leng": 7861,
      "holder</w>": 7862,
      "occu": 7863,
      "marie</w>": 7864,
      "cathedral</w>": 7865,
      "buzz": 7866,
      "bies</w>": 7867,
      "nascar</w>": 7868,
      "bmw</w>": 7869,
      "battery</w>": 7870,
      "charlotte</w>": 7871,
      "doctor": 7872,
      "zzle</w>": 7873,
      "seven": 7874,
      "insan": 7875,
      "ddy</w>": 7876,
      "sten</w>": 7877,
      "labor</w>": 7878,
      "thrilled</w>": 7879,
      "seren": 7880,
      "documentary</w>": 7881,
      "waves</w>": 7882,
      "certain</w>": 7883,
      "candid": 7884,
      "allowed</w>": 7885,
      "nintendo</w>": 7886,
      "starwars</w>": 7887,
      "tap</w>": 7888,
      "homemade</w>": 7889,
      "dles</w>": 7890,
      "thering</w>": 7891,
      "bree": 7892,
      "empty</w>": 7893,
      "piano</w>": 7894,
      "positi": 7895,
      "country": 7896,
      "pork</w>": 7897,
      "puts</w>": 7898,
      "perry</w>": 7899,
      "matic</w>": 7900,
      "spotlight</w>": 7901,
      "tist</w>": 7902,
      "orities</w>": 7903,
      "wealth</w>": 7904,
      "cp": 7905,
      "barbar": 7906,
      "committed</w>": 7907,
      "assau": 7908,
      "profit</w>": 7909,
      "eight</w>": 7910,
      "hul": 7911,
      "finishing</w>": 7912,
      "runner</w>": 7913,
      "sso</w>": 7914,
      "inspec": 7915,
      "charged</w>": 7916,
      "christop": 7917,
      "losing</w>": 7918,
      "coal</w>": 7919,
      "hoo</w>": 7920,
      "elev": 7921,
      "dele": 7922,
      "moham": 7923,
      "donation</w>": 7924,
      "cable</w>": 7925,
      "clinic</w>": 7926,
      "jin": 7927,
      "managed</w>": 7928,
      "tering</w>": 7929,
      "â¬": 7930,
      "urban": 7931,
      "deputy</w>": 7932,
      "bber</w>": 7933,
      "burn": 7934,
      "academic</w>": 7935,
      "ott</w>": 7936,
      "stake</w>": 7937,
      "iter": 7938,
      "stown</w>": 7939,
      "acker</w>": 7940,
      "adventures</w>": 7941,
      "adams</w>": 7942,
      "greg</w>": 7943,
      "prom</w>": 7944,
      "vol</w>": 7945,
      "acqu": 7946,
      "congre": 7947,
      "paint": 7948,
      "citizens</w>": 7949,
      "call": 7950,
      "afford": 7951,
      "vc</w>": 7952,
      "asks</w>": 7953,
      "thetic</w>": 7954,
      "independence</w>": 7955,
      "âĽ": 7956,
      "hitting</w>": 7957,
      "blon": 7958,
      "future": 7959,
      "âı": 7960,
      "inno": 7961,
      "gene</w>": 7962,
      "boards</w>": 7963,
      "distance</w>": 7964,
      "set": 7965,
      "remem": 7966,
      "thal": 7967,
      "prevent</w>": 7968,
      "lang": 7969,
      "objec": 7970,
      "susp": 7971,
      "matt": 7972,
      "induc": 7973,
      "boro</w>": 7974,
      "pione": 7975,
      "redi": 7976,
      "virtu": 7977,
      "printed</w>": 7978,
      "scope</w>": 7979,
      "shark</w>": 7980,
      "succe": 7981,
      "astron": 7982,
      "illegal</w>": 7983,
      "jag": 7984,
      "cting</w>": 7985,
      "inee</w>": 7986,
      "ato": 7987,
      "robin</w>": 7988,
      "nutrition</w>": 7989,
      "bf</w>": 7990,
      "dutch</w>": 7991,
      "bn</w>": 7992,
      "furniture</w>": 7993,
      "forgotten</w>": 7994,
      "atar</w>": 7995,
      "rup": 7996,
      "hyper": 7997,
      "branch</w>": 7998,
      "communication</w>": 7999,
      "degrees</w>": 8000,
      "onia</w>": 8001,
      "uncle</w>": 8002,
      "promote</w>": 8003,
      "orche": 8004,
      "wii</w>": 8005,
      "js</w>": 8006,
      "button</w>": 8007,
      "major": 8008,
      "cbs</w>": 8009,
      "bristol</w>": 8010,
      "premium</w>": 8011,
      "ordinary</w>": 8012,
      "edit</w>": 8013,
      "mg</w>": 8014,
      "weed</w>": 8015,
      "steven</w>": 8016,
      ":'": 8017,
      "gus</w>": 8018,
      "tes": 8019,
      "captured</w>": 8020,
      "drugs</w>": 8021,
      "dow": 8022,
      "writes</w>": 8023,
      "bishop</w>": 8024,
      "wheels</w>": 8025,
      "alization</w>": 8026,
      "discovery</w>": 8027,
      "wr</w>": 8028,
      "rachel</w>": 8029,
      "neil</w>": 8030,
      "hydr": 8031,
      "cutest</w>": 8032,
      "entrepreneur</w>": 8033,
      "korean</w>": 8034,
      "oregon</w>": 8035,
      "ulty</w>": 8036,
      "perfectly</w>": 8037,
      "supported</w>": 8038,
      "historical</w>": 8039,
      "twins</w>": 8040,
      "elly": 8041,
      "wel</w>": 8042,
      "devil</w>": 8043,
      "income</w>": 8044,
      "scientists</w>": 8045,
      "deleg": 8046,
      "hen</w>": 8047,
      "oni</w>": 8048,
      "iced</w>": 8049,
      "gio</w>": 8050,
      "curry</w>": 8051,
      "reveal</w>": 8052,
      "eg": 8053,
      "buffalo</w>": 8054,
      "nol": 8055,
      "opera</w>": 8056,
      "cameron</w>": 8057,
      "hahahaha": 8058,
      "jab": 8059,
      "graduation</w>": 8060,
      "craig</w>": 8061,
      "ral": 8062,
      "if": 8063,
      "organization</w>": 8064,
      "lege</w>": 8065,
      "gang": 8066,
      "sud": 8067,
      "edinburgh</w>": 8068,
      "lack</w>": 8069,
      "flies</w>": 8070,
      "gate": 8071,
      "thrones</w>": 8072,
      "qb</w>": 8073,
      "thereal": 8074,
      "eleg": 8075,
      "ppin</w>": 8076,
      "cles</w>": 8077,
      "jamie</w>": 8078,
      "tnam</w>": 8079,
      "crypto": 8080,
      "oul</w>": 8081,
      "pages</w>": 8082,
      "ase": 8083,
      "roots</w>": 8084,
      "stupid</w>": 8085,
      "adid": 8086,
      "boot</w>": 8087,
      "protein</w>": 8088,
      "sap": 8089,
      "sium</w>": 8090,
      "sus": 8091,
      "endor": 8092,
      "function</w>": 8093,
      "dont": 8094,
      "enna</w>": 8095,
      "chy</w>": 8096,
      "sque</w>": 8097,
      "worker</w>": 8098,
      "mtv": 8099,
      "ea</w>": 8100,
      "kan</w>": 8101,
      "ðŁĴļ": 8102,
      "mus</w>": 8103,
      "profession": 8104,
      "tto</w>": 8105,
      "operations</w>": 8106,
      "allo": 8107,
      "ctor</w>": 8108,
      "invite</w>": 8109,
      "scand": 8110,
      "outh</w>": 8111,
      "zim": 8112,
      "links</w>": 8113,
      "clients</w>": 8114,
      "samsung</w>": 8115,
      "discusses</w>": 8116,
      "nell</w>": 8117,
      "ultra</w>": 8118,
      "somewhere</w>": 8119,
      "stewart</w>": 8120,
      "inet</w>": 8121,
      "dez</w>": 8122,
      "bout</w>": 8123,
      "factor</w>": 8124,
      "tian</w>": 8125,
      "trans</w>": 8126,
      "jeremy</w>": 8127,
      "db</w>": 8128,
      "ðŁĩ¬": 8129,
      "orn</w>": 8130,
      "developing</w>": 8131,
      "spol</w>": 8132,
      "cooper</w>": 8133,
      "mau": 8134,
      "remembering</w>": 8135,
      "trek</w>": 8136,
      "family": 8137,
      "seniors</w>": 8138,
      "foster</w>": 8139,
      "attended</w>": 8140,
      "wing": 8141,
      "transform": 8142,
      "elementary</w>": 8143,
      "horiz": 8144,
      "listing</w>": 8145,
      "malaysia</w>": 8146,
      "itch</w>": 8147,
      "warrior</w>": 8148,
      "philippines</w>": 8149,
      "russell</w>": 8150,
      "mend": 8151,
      "initiative</w>": 8152,
      "creep": 8153,
      "tops</w>": 8154,
      "briti": 8155,
      "aur": 8156,
      "sharp</w>": 8157,
      "advertising</w>": 8158,
      "ugly</w>": 8159,
      "achiev": 8160,
      "materials</w>": 8161,
      "bug</w>": 8162,
      "device</w>": 8163,
      "bonus</w>": 8164,
      "facility</w>": 8165,
      "cole</w>": 8166,
      "nhl</w>": 8167,
      "yas": 8168,
      "planned</w>": 8169,
      "pole</w>": 8170,
      "excellence</w>": 8171,
      "trick</w>": 8172,
      "confl": 8173,
      "rp</w>": 8174,
      "achieve</w>": 8175,
      "loan</w>": 8176,
      "swag</w>": 8177,
      "jessica</w>": 8178,
      "howe": 8179,
      "pour</w>": 8180,
      "scu": 8181,
      "zoo": 8182,
      "rated</w>": 8183,
      "dresses</w>": 8184,
      "rebel": 8185,
      "mexican</w>": 8186,
      "coordin": 8187,
      "mess</w>": 8188,
      "atlantic</w>": 8189,
      "tl</w>": 8190,
      "oscar</w>": 8191,
      "walks</w>": 8192,
      "pharmac": 8193,
      "investigation</w>": 8194,
      "...#</w>": 8195,
      "cci</w>": 8196,
      "easily</w>": 8197,
      "mondaymotivation</w>": 8198,
      "yment</w>": 8199,
      "auti": 8200,
      "forced</w>": 8201,
      "armed</w>": 8202,
      "colleagues</w>": 8203,
      "papers</w>": 8204,
      "proper</w>": 8205,
      "shake": 8206,
      "buc": 8207,
      "lean</w>": 8208,
      "exhibit</w>": 8209,
      "evement</w>": 8210,
      "cott": 8211,
      "biz": 8212,
      "sper": 8213,
      "kent</w>": 8214,
      "swan": 8215,
      "/@</w>": 8216,
      "girlfriend</w>": 8217,
      "hawk</w>": 8218,
      "âĺĢï¸ı</w>": 8219,
      "mono": 8220,
      "ðŁĴĽ": 8221,
      "statue</w>": 8222,
      "ðŁĺ³</w>": 8223,
      "ras</w>": 8224,
      "teeth</w>": 8225,
      "precious</w>": 8226,
      "tile</w>": 8227,
      "pam": 8228,
      "swift</w>": 8229,
      "vali": 8230,
      "nose</w>": 8231,
      "drunk</w>": 8232,
      "experiences</w>": 8233,
      "comeback</w>": 8234,
      "genius</w>": 8235,
      "worse</w>": 8236,
      "shef": 8237,
      "rad</w>": 8238,
      "edit": 8239,
      "honour</w>": 8240,
      "auspol</w>": 8241,
      "larry</w>": 8242,
      "hire</w>": 8243,
      "gordon</w>": 8244,
      "achievement</w>": 8245,
      "........": 8246,
      "suicide</w>": 8247,
      "alternative</w>": 8248,
      "sup</w>": 8249,
      "surroun": 8250,
      "shake</w>": 8251,
      "keith</w>": 8252,
      "pepper</w>": 8253,
      "turk": 8254,
      "criminal</w>": 8255,
      "beck": 8256,
      "sum</w>": 8257,
      "walls</w>": 8258,
      "cnn</w>": 8259,
      "antic": 8260,
      "offe": 8261,
      "colli": 8262,
      "wines</w>": 8263,
      "highlight</w>": 8264,
      "hawaii</w>": 8265,
      "embar": 8266,
      "lfc</w>": 8267,
      "ðŁĩ®": 8268,
      "mv</w>": 8269,
      ">>": 8270,
      "atmo": 8271,
      "word": 8272,
      "carl": 8273,
      "shoutout</w>": 8274,
      "brewing</w>": 8275,
      "ìĿ": 8276,
      "dof": 8277,
      "sic": 8278,
      "hottest</w>": 8279,
      "colon": 8280,
      "hhh</w>": 8281,
      "shut</w>": 8282,
      "lowing</w>": 8283,
      "volume</w>": 8284,
      "apartment</w>": 8285,
      "agreement</w>": 8286,
      "destro": 8287,
      "wee</w>": 8288,
      "religious</w>": 8289,
      "iowa</w>": 8290,
      "rod</w>": 8291,
      "landing</w>": 8292,
      "represent": 8293,
      "ðŁĵ·:</w>": 8294,
      "las": 8295,
      "usually</w>": 8296,
      "hl": 8297,
      "cac": 8298,
      "salv": 8299,
      "along": 8300,
      "laughing</w>": 8301,
      "beans</w>": 8302,
      "reminds</w>": 8303,
      "phase</w>": 8304,
      "somebody</w>": 8305,
      "mask</w>": 8306,
      "ranked</w>": 8307,
      "destroy": 8308,
      "sci</w>": 8309,
      "âĢ¼ï¸ı</w>": 8310,
      "gabri": 8311,
      "leo</w>": 8312,
      "roa": 8313,
      "failed</w>": 8314,
      "sil</w>": 8315,
      "refugees</w>": 8316,
      "revi": 8317,
      "ring": 8318,
      "berries</w>": 8319,
      "cookies</w>": 8320,
      "yy</w>": 8321,
      "conservation</w>": 8322,
      "shab": 8323,
      "humans</w>": 8324,
      "determin": 8325,
      "ain": 8326,
      "niall</w>": 8327,
      "assu": 8328,
      "mba</w>": 8329,
      "from": 8330,
      "extreme</w>": 8331,
      "vices</w>": 8332,
      "commerce</w>": 8333,
      "ghtful</w>": 8334,
      "ordered</w>": 8335,
      "supports</w>": 8336,
      "recap</w>": 8337,
      "vor": 8338,
      "dropping</w>": 8339,
      "correct</w>": 8340,
      "paying</w>": 8341,
      "meaning</w>": 8342,
      "nj": 8343,
      "quiz</w>": 8344,
      "\"#</w>": 8345,
      "business": 8346,
      "ðŁĩ®ðŁĩ": 8347,
      "indigen": 8348,
      "dust</w>": 8349,
      "boxes</w>": 8350,
      "blind</w>": 8351,
      "xxx</w>": 8352,
      "zzy</w>": 8353,
      "ðŁĩ¬ðŁĩ": 8354,
      "ssels</w>": 8355,
      "sant": 8356,
      "ddle</w>": 8357,
      "hilarious</w>": 8358,
      "design": 8359,
      "wondering</w>": 8360,
      "vehicles</w>": 8361,
      "kre": 8362,
      "jud": 8363,
      "reception</w>": 8364,
      "parker</w>": 8365,
      "ÃŃ": 8366,
      "privi": 8367,
      "hydro": 8368,
      "softball</w>": 8369,
      "pollu": 8370,
      "locked</w>": 8371,
      "bah": 8372,
      "ear</w>": 8373,
      "script</w>": 8374,
      "divi": 8375,
      "brace": 8376,
      "george": 8377,
      "theast</w>": 8378,
      "belo": 8379,
      "jal": 8380,
      "tionary</w>": 8381,
      "dental</w>": 8382,
      "rocket</w>": 8383,
      "purch": 8384,
      "shak": 8385,
      "manufacturing</w>": 8386,
      "ez</w>": 8387,
      "itis</w>": 8388,
      "concep": 8389,
      "tball": 8390,
      "chs</w>": 8391,
      "directed</w>": 8392,
      "prayers</w>": 8393,
      "ook</w>": 8394,
      "philos": 8395,
      "variety</w>": 8396,
      "chess</w>": 8397,
      "server</w>": 8398,
      "gand": 8399,
      "balti": 8400,
      "ðŁĵ¸": 8401,
      "sely</w>": 8402,
      "cruz</w>": 8403,
      "spectacular</w>": 8404,
      "burning</w>": 8405,
      "represent</w>": 8406,
      "iz</w>": 8407,
      "tone</w>": 8408,
      "merce": 8409,
      "hell": 8410,
      "bedroom</w>": 8411,
      "establi": 8412,
      "bol</w>": 8413,
      "common": 8414,
      "ãĥ»": 8415,
      "abor": 8416,
      "kitty</w>": 8417,
      "heights</w>": 8418,
      "repair</w>": 8419,
      "william": 8420,
      "quake</w>": 8421,
      "alabama</w>": 8422,
      "population</w>": 8423,
      "rev": 8424,
      "rett</w>": 8425,
      "ists</w>": 8426,
      "nite</w>": 8427,
      "lem</w>": 8428,
      "aha</w>": 8429,
      "cleveland</w>": 8430,
      "rm</w>": 8431,
      "pover": 8432,
      "obse": 8433,
      "montre": 8434,
      "mania</w>": 8435,
      "Â®</w>": 8436,
      "conne": 8437,
      "carni": 8438,
      "shah</w>": 8439,
      "fy": 8440,
      "ua</w>": 8441,
      "scor": 8442,
      "struggle</w>": 8443,
      "bob": 8444,
      "''</w>": 8445,
      "appropri": 8446,
      "decide</w>": 8447,
      "ffed</w>": 8448,
      "caster</w>": 8449,
      "sort</w>": 8450,
      "hungry</w>": 8451,
      "drag": 8452,
      "Ø§Ù": 8453,
      "grounds</w>": 8454,
      "dw": 8455,
      "slightly</w>": 8456,
      "cardin": 8457,
      "deadline</w>": 8458,
      "bronze</w>": 8459,
      "webin": 8460,
      "barry</w>": 8461,
      "silence</w>": 8462,
      "euro</w>": 8463,
      "option</w>": 8464,
      "earn</w>": 8465,
      "ðŁĴĸ": 8466,
      "however</w>": 8467,
      "naren": 8468,
      "nails</w>": 8469,
      "bathroom</w>": 8470,
      "vine": 8471,
      "phd</w>": 8472,
      "mining</w>": 8473,
      "garage</w>": 8474,
      "()</w>": 8475,
      "shoulder</w>": 8476,
      "defeat</w>": 8477,
      "dir</w>": 8478,
      "ov</w>": 8479,
      "liberty</w>": 8480,
      "pleas": 8481,
      "xon</w>": 8482,
      "compre": 8483,
      "av</w>": 8484,
      "jin</w>": 8485,
      "ables</w>": 8486,
      "silent</w>": 8487,
      "famili": 8488,
      "visits</w>": 8489,
      "dipl": 8490,
      "habit": 8491,
      "millions</w>": 8492,
      "regarding</w>": 8493,
      "innovative</w>": 8494,
      "senator</w>": 8495,
      "rts</w>": 8496,
      "von</w>": 8497,
      "kl": 8498,
      "whil": 8499,
      "required</w>": 8500,
      "âĿĦ": 8501,
      "luv</w>": 8502,
      "presidential</w>": 8503,
      "pocket</w>": 8504,
      "hundre": 8505,
      "shown</w>": 8506,
      "frozen</w>": 8507,
      "toward</w>": 8508,
      "fast": 8509,
      "confidence</w>": 8510,
      "rough</w>": 8511,
      "individual</w>": 8512,
      "quet</w>": 8513,
      "ðŁı½": 8514,
      "dome": 8515,
      "fifa</w>": 8516,
      "engineer</w>": 8517,
      "zen": 8518,
      "remix</w>": 8519,
      "ðŁĺĥ</w>": 8520,
      "plant": 8521,
      "minor</w>": 8522,
      "robinson</w>": 8523,
      "asy": 8524,
      "pulled</w>": 8525,
      "certain": 8526,
      "potato</w>": 8527,
      "(:</w>": 8528,
      "pres</w>": 8529,
      "occa": 8530,
      "wit</w>": 8531,
      "item</w>": 8532,
      "sie": 8533,
      "dating</w>": 8534,
      "thompson</w>": 8535,
      "owned</w>": 8536,
      "anu": 8537,
      "vie</w>": 8538,
      "tedly</w>": 8539,
      "goodnight</w>": 8540,
      "except</w>": 8541,
      "ðŁĮŁ</w>": 8542,
      "iraq</w>": 8543,
      "kie": 8544,
      "rences</w>": 8545,
      "lip</w>": 8546,
      "similar</w>": 8547,
      "saudi</w>": 8548,
      "vig": 8549,
      "arthur</w>": 8550,
      "picks</w>": 8551,
      "milan</w>": 8552,
      "honda</w>": 8553,
      "maxi": 8554,
      "og</w>": 8555,
      "stest</w>": 8556,
      "arch</w>": 8557,
      "analytics</w>": 8558,
      "basti": 8559,
      "pearl</w>": 8560,
      "terry</w>": 8561,
      "horse": 8562,
      "astro": 8563,
      "acce": 8564,
      "launching</w>": 8565,
      "international": 8566,
      "sno": 8567,
      "tasty</w>": 8568,
      "denver</w>": 8569,
      "irl</w>": 8570,
      "pete</w>": 8571,
      "torn": 8572,
      "advantage</w>": 8573,
      "varsity</w>": 8574,
      "\"\"</w>": 8575,
      "sole</w>": 8576,
      "gc": 8577,
      "lang</w>": 8578,
      "demonstr": 8579,
      "olds</w>": 8580,
      "unity</w>": 8581,
      "nets</w>": 8582,
      "inspire</w>": 8583,
      "crete</w>": 8584,
      "nashville</w>": 8585,
      "nelson</w>": 8586,
      "eter": 8587,
      "walk": 8588,
      "hyun</w>": 8589,
      "mack": 8590,
      "treas": 8591,
      "seeking</w>": 8592,
      "rage</w>": 8593,
      "brush</w>": 8594,
      "aband": 8595,
      "whilst</w>": 8596,
      "cocon": 8597,
      "hong</w>": 8598,
      "shelter</w>": 8599,
      "ip</w>": 8600,
      "possibly</w>": 8601,
      "soo</w>": 8602,
      "ited": 8603,
      "âĦ": 8604,
      "races</w>": 8605,
      "warming</w>": 8606,
      "quin": 8607,
      "television</w>": 8608,
      "matches</w>": 8609,
      "rapi": 8610,
      "mental": 8611,
      "palm</w>": 8612,
      "jennifer</w>": 8613,
      "rolls</w>": 8614,
      "indiana</w>": 8615,
      "bars</w>": 8616,
      "catching</w>": 8617,
      "rescu": 8618,
      "candidates</w>": 8619,
      "fare": 8620,
      "âłĢ</w>": 8621,
      "seo</w>": 8622,
      "vietnam</w>": 8623,
      "alpha</w>": 8624,
      "michelle</w>": 8625,
      "visible</w>": 8626,
      "regre": 8627,
      "wned</w>": 8628,
      "apple": 8629,
      "lip": 8630,
      "ffe</w>": 8631,
      "liz": 8632,
      "yorkshire</w>": 8633,
      "hail</w>": 8634,
      "seasons</w>": 8635,
      "began</w>": 8636,
      "md": 8637,
      "kc</w>": 8638,
      "lap</w>": 8639,
      "fascinating</w>": 8640,
      "help": 8641,
      "ury": 8642,
      "ums</w>": 8643,
      "nuts</w>": 8644,
      "sem": 8645,
      "alongside</w>": 8646,
      "bridge": 8647,
      "orial</w>": 8648,
      "ove": 8649,
      "worldcup</w>": 8650,
      "british": 8651,
      "comfortable</w>": 8652,
      "ive</w>": 8653,
      "hotels</w>": 8654,
      "fairs</w>": 8655,
      "horri": 8656,
      "sox</w>": 8657,
      "dining</w>": 8658,
      "stream": 8659,
      "barri": 8660,
      "ssy</w>": 8661,
      "wim": 8662,
      "terms</w>": 8663,
      "vu": 8664,
      "pere": 8665,
      "lens</w>": 8666,
      "walked</w>": 8667,
      "ror": 8668,
      "lars</w>": 8669,
      "shield</w>": 8670,
      "doubt</w>": 8671,
      "proto": 8672,
      "crossing</w>": 8673,
      "meant</w>": 8674,
      "medium</w>": 8675,
      "adding</w>": 8676,
      "eb</w>": 8677,
      "cheap</w>": 8678,
      "func": 8679,
      "paper": 8680,
      "brands</w>": 8681,
      "ryan": 8682,
      "feedback</w>": 8683,
      "collins</w>": 8684,
      "unknown</w>": 8685,
      "tropical</w>": 8686,
      "sandwich</w>": 8687,
      "fallen</w>": 8688,
      "formu": 8689,
      "select</w>": 8690,
      "loads</w>": 8691,
      "answers</w>": 8692,
      "ori</w>": 8693,
      "maga</w>": 8694,
      "dor</w>": 8695,
      "duo</w>": 8696,
      "alie</w>": 8697,
      "drum</w>": 8698,
      "uri</w>": 8699,
      "deer</w>": 8700,
      "soul": 8701,
      "shut": 8702,
      "âĺº</w>": 8703,
      "stolen</w>": 8704,
[...]
